#include "magic_wand_model_data.h"

// We need to keep the data array aligned on some architectures.
#ifdef __has_attribute
#define HAVE_ATTRIBUTE(x) __has_attribute(x)
#else
#define HAVE_ATTRIBUTE(x) 0
#endif
#if HAVE_ATTRIBUTE(aligned) || (defined(__GNUC__) && !defined(__clang__))
#define DATA_ALIGN_ATTRIBUTE __attribute__((aligned(4)))
#else
#define DATA_ALIGN_ATTRIBUTE
#endif

const unsigned char g_magic_wand_model_data[] DATA_ALIGN_ATTRIBUTE = {
  0x1c, 0x00, 0x00, 0x00, 0x54, 0x46, 0x4c, 0x33, 0x14, 0x00, 0x20, 0x00,
  0x04, 0x00, 0x08, 0x00, 0x0c, 0x00, 0x10, 0x00, 0x14, 0x00, 0x00, 0x00,
  0x18, 0x00, 0x1c, 0x00, 0x14, 0x00, 0x00, 0x00, 0x03, 0x00, 0x00, 0x00,
  0x18, 0x00, 0x00, 0x00, 0x2c, 0x00, 0x00, 0x00, 0xd8, 0x00, 0x00, 0x00,
  0x2c, 0x00, 0x00, 0x00, 0x80, 0x00, 0x00, 0x00, 0x78, 0x00, 0x00, 0x00,
  0x05, 0x00, 0x00, 0x00, 0x28, 0x07, 0x00, 0x00, 0x44, 0x06, 0x00, 0x00,
  0xbc, 0x03, 0x00, 0x00, 0xf8, 0x02, 0x00, 0x00, 0xac, 0x01, 0x00, 0x00,
  0x01, 0x00, 0x00, 0x00, 0xd0, 0x00, 0x00, 0x00, 0x14, 0x00, 0x00, 0x00,
  0xdc, 0x32, 0x00, 0x00, 0xd8, 0x32, 0x00, 0x00, 0xd0, 0x31, 0x00, 0x00,
  0x1c, 0x31, 0x00, 0x00, 0x74, 0x30, 0x00, 0x00, 0xfc, 0x2f, 0x00, 0x00,
  0x90, 0x2f, 0x00, 0x00, 0x40, 0x13, 0x00, 0x00, 0xec, 0x11, 0x00, 0x00,
  0x10, 0x10, 0x00, 0x00, 0xb4, 0x07, 0x00, 0x00, 0xb0, 0x32, 0x00, 0x00,
  0xac, 0x32, 0x00, 0x00, 0xa8, 0x32, 0x00, 0x00, 0xa4, 0x32, 0x00, 0x00,
  0xa0, 0x32, 0x00, 0x00, 0x9c, 0x32, 0x00, 0x00, 0x98, 0x32, 0x00, 0x00,
  0x94, 0x32, 0x00, 0x00, 0x3c, 0x00, 0x00, 0x00, 0x00, 0x00, 0x00, 0x00,
  0x01, 0x00, 0x00, 0x00, 0x0c, 0x00, 0x00, 0x00, 0x08, 0x00, 0x0c, 0x00,
  0x04, 0x00, 0x08, 0x00, 0x08, 0x00, 0x00, 0x00, 0x08, 0x00, 0x00, 0x00,
  0x13, 0x00, 0x00, 0x00, 0x13, 0x00, 0x00, 0x00, 0x6d, 0x69, 0x6e, 0x5f,
  0x72, 0x75, 0x6e, 0x74, 0x69, 0x6d, 0x65, 0x5f, 0x76, 0x65, 0x72, 0x73,
  0x69, 0x6f, 0x6e, 0x00, 0xb6, 0xce, 0xff, 0xff, 0x04, 0x00, 0x00, 0x00,
  0x10, 0x00, 0x00, 0x00, 0x31, 0x2e, 0x35, 0x2e, 0x30, 0x00, 0x00, 0x00,
  0x00, 0x00, 0x00, 0x00, 0x00, 0x00, 0x00, 0x00, 0x0f, 0x00, 0x00, 0x00,
  0x4d, 0x4c, 0x49, 0x52, 0x20, 0x43, 0x6f, 0x6e, 0x76, 0x65, 0x72, 0x74,
  0x65, 0x64, 0x2e, 0x00, 0x00, 0x00, 0x0e, 0x00, 0x18, 0x00, 0x04, 0x00,
  0x08, 0x00, 0x0c, 0x00, 0x10, 0x00, 0x14, 0x00, 0x0e, 0x00, 0x00, 0x00,
  0x14, 0x00, 0x00, 0x00, 0x5c, 0x00, 0x00, 0x00, 0x60, 0x00, 0x00, 0x00,
  0x64, 0x00, 0x00, 0x00, 0x84, 0x00, 0x00, 0x00, 0x12, 0x00, 0x00, 0x00,
  0x9c, 0x31, 0x00, 0x00, 0x2c, 0x31, 0x00, 0x00, 0x88, 0x30, 0x00, 0x00,
  0xe0, 0x2f, 0x00, 0x00, 0x38, 0x2f, 0x00, 0x00, 0xd4, 0x2e, 0x00, 0x00,
  0x6c, 0x2e, 0x00, 0x00, 0x18, 0x12, 0x00, 0x00, 0xbc, 0x10, 0x00, 0x00,
  0xe0, 0x0e, 0x00, 0x00, 0x0c, 0x06, 0x00, 0x00, 0x28, 0x05, 0x00, 0x00,
  0xe8, 0x03, 0x00, 0x00, 0x3c, 0x03, 0x00, 0x00, 0x98, 0x02, 0x00, 0x00,
  0xd4, 0x01, 0x00, 0x00, 0x10, 0x01, 0x00, 0x00, 0x84, 0x00, 0x00, 0x00,
  0x01, 0x00, 0x00, 0x00, 0x00, 0x00, 0x00, 0x00, 0x01, 0x00, 0x00, 0x00,
  0x11, 0x00, 0x00, 0x00, 0x08, 0x00, 0x00, 0x00, 0x74, 0x05, 0x00, 0x00,
  0x94, 0x04, 0x00, 0x00, 0x78, 0x03, 0x00, 0x00, 0xbc, 0x02, 0x00, 0x00,
  0x30, 0x02, 0x00, 0x00, 0x50, 0x01, 0x00, 0x00, 0xa8, 0x00, 0x00, 0x00,
  0x10, 0x00, 0x00, 0x00, 0x04, 0x00, 0x00, 0x00, 0x6d, 0x61, 0x69, 0x6e,
  0x00, 0x00, 0x00, 0x00, 0x7a, 0xff, 0xff, 0xff, 0x00, 0x00, 0x00, 0x09,
  0x04, 0x00, 0x00, 0x00, 0x1c, 0x00, 0x00, 0x00, 0x10, 0x00, 0x00, 0x00,
  0x04, 0x00, 0x00, 0x00, 0xb2, 0xcf, 0xff, 0xff, 0x00, 0x00, 0x80, 0x3f,
  0x01, 0x00, 0x00, 0x00, 0x11, 0x00, 0x00, 0x00, 0x01, 0x00, 0x00, 0x00,
  0x10, 0x00, 0x00, 0x00, 0xa0, 0xfa, 0xff, 0xff, 0x19, 0x00, 0x00, 0x00,
  0x00, 0x00, 0x00, 0x19, 0x01, 0x00, 0x00, 0x00, 0x40, 0xcf, 0xff, 0xff,
  0x14, 0x00, 0x00, 0x00, 0x12, 0x00, 0x00, 0x00, 0x18, 0x00, 0x00, 0x00,
  0x30, 0x00, 0x00, 0x00, 0x20, 0x00, 0x00, 0x00, 0x02, 0x00, 0x00, 0x00,
  0x01, 0x00, 0x00, 0x00, 0x04, 0x00, 0x00, 0x00, 0x08, 0x00, 0x00, 0x00,
  0x49, 0x64, 0x65, 0x6e, 0x74, 0x69, 0x74, 0x79, 0x00, 0x00, 0x00, 0x00,
  0x02, 0x00, 0x00, 0x00, 0xff, 0xff, 0xff, 0xff, 0x04, 0x00, 0x00, 0x00,
  0x24, 0xd0, 0xff, 0xff, 0x00, 0x00, 0x0e, 0x00, 0x18, 0x00, 0x08, 0x00,
  0x0c, 0x00, 0x10, 0x00, 0x07, 0x00, 0x14, 0x00, 0x0e, 0x00, 0x00, 0x00,
  0x00, 0x00, 0x00, 0x08, 0x03, 0x00, 0x00, 0x00, 0x18, 0x00, 0x00, 0x00,
  0x0c, 0x00, 0x00, 0x00, 0x04, 0x00, 0x00, 0x00, 0x40, 0xcf, 0xff, 0xff,
  0x01, 0x00, 0x00, 0x00, 0x10, 0x00, 0x00, 0x00, 0x03, 0x00, 0x00, 0x00,
  0x0f, 0x00, 0x00, 0x00, 0x07, 0x00, 0x00, 0x00, 0x04, 0x00, 0x00, 0x00,
  0xc8, 0xcf, 0xff, 0xff, 0x14, 0x00, 0x00, 0x00, 0x11, 0x00, 0x00, 0x00,
  0x18, 0x00, 0x00, 0x00, 0x5c, 0x00, 0x00, 0x00, 0x4c, 0x00, 0x00, 0x00,
  0x02, 0x00, 0x00, 0x00, 0x01, 0x00, 0x00, 0x00, 0x04, 0x00, 0x00, 0x00,
  0x34, 0x00, 0x00, 0x00, 0x73, 0x65, 0x71, 0x75, 0x65, 0x6e, 0x74, 0x69,
  0x61, 0x6c, 0x2f, 0x64, 0x65, 0x6e, 0x73, 0x65, 0x5f, 0x31, 0x2f, 0x4d,
  0x61, 0x74, 0x4d, 0x75, 0x6c, 0x3b, 0x73, 0x65, 0x71, 0x75, 0x65, 0x6e,
  0x74, 0x69, 0x61, 0x6c, 0x2f, 0x64, 0x65, 0x6e, 0x73, 0x65, 0x5f, 0x31,
  0x2f, 0x42, 0x69, 0x61, 0x73, 0x41, 0x64, 0x64, 0x00, 0x00, 0x00, 0x00,
  0x02, 0x00, 0x00, 0x00, 0xff, 0xff, 0xff, 0xff, 0x04, 0x00, 0x00, 0x00,
  0xc8, 0xcf, 0xff, 0xff, 0xda, 0xfc, 0xff, 0xff, 0x00, 0x00, 0x00, 0x08,
  0x03, 0x00, 0x00, 0x00, 0x24, 0x00, 0x00, 0x00, 0x18, 0x00, 0x00, 0x00,
  0x0c, 0x00, 0x00, 0x00, 0x00, 0x00, 0x06, 0x00, 0x08, 0x00, 0x07, 0x00,
  0x06, 0x00, 0x00, 0x00, 0x00, 0x00, 0x00, 0x01, 0x01, 0x00, 0x00, 0x00,
  0x0f, 0x00, 0x00, 0x00, 0x03, 0x00, 0x00, 0x00, 0x0e, 0x00, 0x00, 0x00,
  0x06, 0x00, 0x00, 0x00, 0x03, 0x00, 0x00, 0x00, 0xe8, 0xfb, 0xff, 0xff,
  0x09, 0x00, 0x00, 0x00, 0x00, 0x00, 0x00, 0x09, 0x01, 0x00, 0x00, 0x00,
  0x88, 0xd0, 0xff, 0xff, 0x14, 0x00, 0x00, 0x00, 0x10, 0x00, 0x00, 0x00,
  0x18, 0x00, 0x00, 0x00, 0x6c, 0x00, 0x00, 0x00, 0x5c, 0x00, 0x00, 0x00,
  0x02, 0x00, 0x00, 0x00, 0x01, 0x00, 0x00, 0x00, 0x10, 0x00, 0x00, 0x00,
  0x46, 0x00, 0x00, 0x00, 0x73, 0x65, 0x71, 0x75, 0x65, 0x6e, 0x74, 0x69,
  0x61, 0x6c, 0x2f, 0x64, 0x65, 0x6e, 0x73, 0x65, 0x2f, 0x4d, 0x61, 0x74,
  0x4d, 0x75, 0x6c, 0x3b, 0x73, 0x65, 0x71, 0x75, 0x65, 0x6e, 0x74, 0x69,
  0x61, 0x6c, 0x2f, 0x64, 0x65, 0x6e, 0x73, 0x65, 0x2f, 0x52, 0x65, 0x6c,
  0x75, 0x3b, 0x73, 0x65, 0x71, 0x75, 0x65, 0x6e, 0x74, 0x69, 0x61, 0x6c,
  0x2f, 0x64, 0x65, 0x6e, 0x73, 0x65, 0x2f, 0x42, 0x69, 0x61, 0x73, 0x41,
  0x64, 0x64, 0x00, 0x00, 0x02, 0x00, 0x00, 0x00, 0xff, 0xff, 0xff, 0xff,
  0x10, 0x00, 0x00, 0x00, 0xa8, 0xd1, 0xff, 0xff, 0x00, 0x00, 0x0a, 0x00,
  0x10, 0x00, 0x04, 0x00, 0x08, 0x00, 0x0c, 0x00, 0x0a, 0x00, 0x00, 0x00,
  0x02, 0x00, 0x00, 0x00, 0x10, 0x00, 0x00, 0x00, 0x04, 0x00, 0x00, 0x00,
  0x01, 0x00, 0x00, 0x00, 0x0e, 0x00, 0x00, 0x00, 0x02, 0x00, 0x00, 0x00,
  0x0d, 0x00, 0x00, 0x00, 0x05, 0x00, 0x00, 0x00, 0xa8, 0xfc, 0xff, 0xff,
  0x16, 0x00, 0x00, 0x00, 0x00, 0x00, 0x00, 0x16, 0x01, 0x00, 0x00, 0x00,
  0x48, 0xd1, 0xff, 0xff, 0x14, 0x00, 0x00, 0x00, 0x0f, 0x00, 0x00, 0x00,
  0x18, 0x00, 0x00, 0x00, 0x40, 0x00, 0x00, 0x00, 0x30, 0x00, 0x00, 0x00,
  0x02, 0x00, 0x00, 0x00, 0x01, 0x00, 0x00, 0x00, 0x70, 0x00, 0x00, 0x00,
  0x1a, 0x00, 0x00, 0x00, 0x73, 0x65, 0x71, 0x75, 0x65, 0x6e, 0x74, 0x69,
  0x61, 0x6c, 0x2f, 0x66, 0x6c, 0x61, 0x74, 0x74, 0x65, 0x6e, 0x2f, 0x52,
  0x65, 0x73, 0x68, 0x61, 0x70, 0x65, 0x00, 0x00, 0x02, 0x00, 0x00, 0x00,
  0xff, 0xff, 0xff, 0xff, 0x70, 0x00, 0x00, 0x00, 0x2c, 0xd1, 0xff, 0xff,
  0x3e, 0xfe, 0xff, 0xff, 0x00, 0x00, 0x00, 0x05, 0x01, 0x00, 0x00, 0x00,
  0x38, 0x00, 0x00, 0x00, 0x2c, 0x00, 0x00, 0x00, 0x14, 0x00, 0x00, 0x00,
  0x00, 0x00, 0x0e, 0x00, 0x14, 0x00, 0x00, 0x00, 0x10, 0x00, 0x0c, 0x00,
  0x08, 0x00, 0x04, 0x00, 0x0e, 0x00, 0x00, 0x00, 0x03, 0x00, 0x00, 0x00,
  0x01, 0x00, 0x00, 0x00, 0x03, 0x00, 0x00, 0x00, 0x01, 0x00, 0x00, 0x00,
  0x01, 0x00, 0x00, 0x00, 0x0d, 0x00, 0x00, 0x00, 0x01, 0x00, 0x00, 0x00,
  0x0c, 0x00, 0x00, 0x00, 0xe8, 0xd1, 0xff, 0xff, 0x14, 0x00, 0x00, 0x00,
  0x0e, 0x00, 0x00, 0x00, 0x20, 0x00, 0x00, 0x00, 0x58, 0x00, 0x00, 0x00,
  0x40, 0x00, 0x00, 0x00, 0x04, 0x00, 0x00, 0x00, 0x01, 0x00, 0x00, 0x00,
  0x07, 0x00, 0x00, 0x00, 0x01, 0x00, 0x00, 0x00, 0x10, 0x00, 0x00, 0x00,
  0x22, 0x00, 0x00, 0x00, 0x73, 0x65, 0x71, 0x75, 0x65, 0x6e, 0x74, 0x69,
  0x61, 0x6c, 0x2f, 0x6d, 0x61, 0x78, 0x5f, 0x70, 0x6f, 0x6f, 0x6c, 0x69,
  0x6e, 0x67, 0x32, 0x64, 0x5f, 0x31, 0x2f, 0x4d, 0x61, 0x78, 0x50, 0x6f,
  0x6f, 0x6c, 0x00, 0x00, 0x04, 0x00, 0x00, 0x00, 0xff, 0xff, 0xff, 0xff,
  0x07, 0x00, 0x00, 0x00, 0x01, 0x00, 0x00, 0x00, 0x10, 0x00, 0x00, 0x00,
  0xe4, 0xd1, 0xff, 0xff, 0x1a, 0xfe, 0xff, 0xff, 0x00, 0x00, 0x00, 0x01,
  0x24, 0x00, 0x00, 0x00, 0x18, 0x00, 0x00, 0x00, 0x04, 0x00, 0x00, 0x00,
  0x0c, 0xfe, 0xff, 0xff, 0x01, 0x00, 0x00, 0x00, 0x01, 0x00, 0x00, 0x00,
  0x00, 0x00, 0x00, 0x01, 0x01, 0x00, 0x00, 0x00, 0x0c, 0x00, 0x00, 0x00,
  0x03, 0x00, 0x00, 0x00, 0x0b, 0x00, 0x00, 0x00, 0x09, 0x00, 0x00, 0x00,
  0x02, 0x00, 0x00, 0x00, 0x90, 0xd2, 0xff, 0xff, 0x14, 0x00, 0x00, 0x00,
  0x0d, 0x00, 0x00, 0x00, 0x20, 0x00, 0x00, 0x00, 0xb8, 0x00, 0x00, 0x00,
  0xa0, 0x00, 0x00, 0x00, 0x04, 0x00, 0x00, 0x00, 0x01, 0x00, 0x00, 0x00,
  0x15, 0x00, 0x00, 0x00, 0x01, 0x00, 0x00, 0x00, 0x10, 0x00, 0x00, 0x00,
  0x83, 0x00, 0x00, 0x00, 0x73, 0x65, 0x71, 0x75, 0x65, 0x6e, 0x74, 0x69,
  0x61, 0x6c, 0x2f, 0x63, 0x6f, 0x6e, 0x76, 0x32, 0x64, 0x5f, 0x31, 0x2f,
  0x52, 0x65, 0x6c, 0x75, 0x3b, 0x73, 0x65, 0x71, 0x75, 0x65, 0x6e, 0x74,
  0x69, 0x61, 0x6c, 0x2f, 0x63, 0x6f, 0x6e, 0x76, 0x32, 0x64, 0x5f, 0x31,
  0x2f, 0x42, 0x69, 0x61, 0x73, 0x41, 0x64, 0x64, 0x3b, 0x73, 0x65, 0x71,
  0x75, 0x65, 0x6e, 0x74, 0x69, 0x61, 0x6c, 0x2f, 0x63, 0x6f, 0x6e, 0x76,
  0x32, 0x64, 0x5f, 0x31, 0x2f, 0x43, 0x6f, 0x6e, 0x76, 0x32, 0x44, 0x3b,
  0x73, 0x65, 0x71, 0x75, 0x65, 0x6e, 0x74, 0x69, 0x61, 0x6c, 0x2f, 0x63,
  0x6f, 0x6e, 0x76, 0x32, 0x64, 0x5f, 0x31, 0x2f, 0x42, 0x69, 0x61, 0x73,
  0x41, 0x64, 0x64, 0x2f, 0x52, 0x65, 0x61, 0x64, 0x56, 0x61, 0x72, 0x69,
  0x61, 0x62, 0x6c, 0x65, 0x4f, 0x70, 0x2f, 0x72, 0x65, 0x73, 0x6f, 0x75,
  0x72, 0x63, 0x65, 0x00, 0x04, 0x00, 0x00, 0x00, 0xff, 0xff, 0xff, 0xff,
  0x15, 0x00, 0x00, 0x00, 0x01, 0x00, 0x00, 0x00, 0x10, 0x00, 0x00, 0x00,
  0xfc, 0xd3, 0xff, 0xff, 0x00, 0x00, 0x0e, 0x00, 0x1a, 0x00, 0x08, 0x00,
  0x0c, 0x00, 0x10, 0x00, 0x07, 0x00, 0x14, 0x00, 0x0e, 0x00, 0x00, 0x00,
  0x00, 0x00, 0x00, 0x05, 0x01, 0x00, 0x00, 0x00, 0x3c, 0x00, 0x00, 0x00,
  0x30, 0x00, 0x00, 0x00, 0x14, 0x00, 0x00, 0x00, 0x00, 0x00, 0x0e, 0x00,
  0x18, 0x00, 0x17, 0x00, 0x10, 0x00, 0x0c, 0x00, 0x08, 0x00, 0x04, 0x00,
  0x0e, 0x00, 0x00, 0x00, 0x03, 0x00, 0x00, 0x00, 0x03, 0x00, 0x00, 0x00,
  0x03, 0x00, 0x00, 0x00, 0x03, 0x00, 0x00, 0x00, 0x00, 0x00, 0x00, 0x01,
  0x01, 0x00, 0x00, 0x00, 0x0b, 0x00, 0x00, 0x00, 0x01, 0x00, 0x00, 0x00,
  0x0a, 0x00, 0x00, 0x00, 0x2c, 0xff, 0xff, 0xff, 0x11, 0x00, 0x00, 0x00,
  0x00, 0x00, 0x00, 0x11, 0x01, 0x00, 0x00, 0x00, 0xcc, 0xd3, 0xff, 0xff,
  0x14, 0x00, 0x00, 0x00, 0x0c, 0x00, 0x00, 0x00, 0x20, 0x00, 0x00, 0x00,
  0x58, 0x00, 0x00, 0x00, 0x40, 0x00, 0x00, 0x00, 0x04, 0x00, 0x00, 0x00,
  0x01, 0x00, 0x00, 0x00, 0x15, 0x00, 0x00, 0x00, 0x01, 0x00, 0x00, 0x00,
  0x08, 0x00, 0x00, 0x00, 0x20, 0x00, 0x00, 0x00, 0x73, 0x65, 0x71, 0x75,
  0x65, 0x6e, 0x74, 0x69, 0x61, 0x6c, 0x2f, 0x6d, 0x61, 0x78, 0x5f, 0x70,
  0x6f, 0x6f, 0x6c, 0x69, 0x6e, 0x67, 0x32, 0x64, 0x2f, 0x4d, 0x61, 0x78,
  0x50, 0x6f, 0x6f, 0x6c, 0x00, 0x00, 0x00, 0x00, 0x04, 0x00, 0x00, 0x00,
  0xff, 0xff, 0xff, 0xff, 0x15, 0x00, 0x00, 0x00, 0x01, 0x00, 0x00, 0x00,
  0x08, 0x00, 0x00, 0x00, 0xd8, 0xd4, 0xff, 0xff, 0x00, 0x00, 0x0e, 0x00,
  0x14, 0x00, 0x00, 0x00, 0x08, 0x00, 0x0c, 0x00, 0x07, 0x00, 0x10, 0x00,
  0x0e, 0x00, 0x00, 0x00, 0x00, 0x00, 0x00, 0x01, 0x30, 0x00, 0x00, 0x00,
  0x24, 0x00, 0x00, 0x00, 0x10, 0x00, 0x00, 0x00, 0x0c, 0x00, 0x10, 0x00,
  0x00, 0x00, 0x04, 0x00, 0x08, 0x00, 0x0f, 0x00, 0x0c, 0x00, 0x00, 0x00,
  0x01, 0x00, 0x00, 0x00, 0x01, 0x00, 0x00, 0x00, 0x00, 0x00, 0x00, 0x01,
  0x01, 0x00, 0x00, 0x00, 0x0a, 0x00, 0x00, 0x00, 0x03, 0x00, 0x00, 0x00,
  0x00, 0x00, 0x00, 0x00, 0x08, 0x00, 0x00, 0x00, 0x01, 0x00, 0x00, 0x00,
  0x0c, 0x00, 0x10, 0x00, 0x0b, 0x00, 0x00, 0x00, 0x0c, 0x00, 0x04, 0x00,
  0x0c, 0x00, 0x00, 0x00, 0x03, 0x00, 0x00, 0x00, 0x00, 0x00, 0x00, 0x03,
  0x01, 0x00, 0x00, 0x00, 0xac, 0xd4, 0xff, 0xff, 0x14, 0x00, 0x00, 0x00,
  0x0b, 0x00, 0x00, 0x00, 0x20, 0x00, 0x00, 0x00, 0xb0, 0x00, 0x00, 0x00,
  0x98, 0x00, 0x00, 0x00, 0x04, 0x00, 0x00, 0x00, 0x01, 0x00, 0x00, 0x00,
  0x40, 0x00, 0x00, 0x00, 0x03, 0x00, 0x00, 0x00, 0x08, 0x00, 0x00, 0x00,
  0x7b, 0x00, 0x00, 0x00, 0x73, 0x65, 0x71, 0x75, 0x65, 0x6e, 0x74, 0x69,
  0x61, 0x6c, 0x2f, 0x63, 0x6f, 0x6e, 0x76, 0x32, 0x64, 0x2f, 0x52, 0x65,
  0x6c, 0x75, 0x3b, 0x73, 0x65, 0x71, 0x75, 0x65, 0x6e, 0x74, 0x69, 0x61,
  0x6c, 0x2f, 0x63, 0x6f, 0x6e, 0x76, 0x32, 0x64, 0x2f, 0x42, 0x69, 0x61,
  0x73, 0x41, 0x64, 0x64, 0x3b, 0x73, 0x65, 0x71, 0x75, 0x65, 0x6e, 0x74,
  0x69, 0x61, 0x6c, 0x2f, 0x63, 0x6f, 0x6e, 0x76, 0x32, 0x64, 0x2f, 0x43,
  0x6f, 0x6e, 0x76, 0x32, 0x44, 0x3b, 0x73, 0x65, 0x71, 0x75, 0x65, 0x6e,
  0x74, 0x69, 0x61, 0x6c, 0x2f, 0x63, 0x6f, 0x6e, 0x76, 0x32, 0x64, 0x2f,
  0x42, 0x69, 0x61, 0x73, 0x41, 0x64, 0x64, 0x2f, 0x52, 0x65, 0x61, 0x64,
  0x56, 0x61, 0x72, 0x69, 0x61, 0x62, 0x6c, 0x65, 0x4f, 0x70, 0x2f, 0x72,
  0x65, 0x73, 0x6f, 0x75, 0x72, 0x63, 0x65, 0x00, 0x04, 0x00, 0x00, 0x00,
  0xff, 0xff, 0xff, 0xff, 0x40, 0x00, 0x00, 0x00, 0x03, 0x00, 0x00, 0x00,
  0x08, 0x00, 0x00, 0x00, 0x00, 0xd5, 0xff, 0xff, 0x0a, 0xd6, 0xff, 0xff,
  0x04, 0x00, 0x00, 0x00, 0x00, 0x08, 0x00, 0x00, 0x42, 0x3b, 0x85, 0xbe,
  0xd7, 0x43, 0x36, 0xbd, 0x9b, 0xca, 0xe3, 0xbd, 0xd4, 0x5a, 0x8b, 0x3d,
  0xf9, 0x6c, 0x84, 0xbe, 0x88, 0xa5, 0x5e, 0xbe, 0xe6, 0x13, 0x88, 0xbe,
  0x9f, 0x2d, 0x83, 0x3c, 0x50, 0x24, 0x43, 0xbe, 0x36, 0xfb, 0x35, 0x3d,
  0xd2, 0xb9, 0x9b, 0xba, 0x47, 0xc8, 0x97, 0x3e, 0xbd, 0xe0, 0xe1, 0xbd,
  0x66, 0xce, 0x3f, 0xbe, 0x92, 0x71, 0x0e, 0x3e, 0xc4, 0xd9, 0x85, 0x3d,
  0xee, 0xef, 0x0e, 0xbe, 0xeb, 0xd5, 0x17, 0xbc, 0x12, 0x4b, 0x4f, 0xbd,
  0xb2, 0x6b, 0x78, 0x3e, 0x90, 0xe4, 0x40, 0xbe, 0x66, 0xc5, 0x62, 0xbe,
  0x3f, 0xda, 0x42, 0xbe, 0x28, 0x54, 0x97, 0x3d, 0x62, 0xbb, 0x08, 0xbd,
  0x5f, 0x21, 0x40, 0x3d, 0x2f, 0xc4, 0x1e, 0xbe, 0xde, 0x50, 0x9a, 0x3d,
  0x94, 0x60, 0x0e, 0xbe, 0x84, 0xff, 0x1a, 0xbe, 0x60, 0x93, 0x2a, 0x3e,
  0xf8, 0xf0, 0x20, 0x3e, 0xa5, 0x08, 0x8e, 0x3e, 0xf2, 0x5a, 0xb2, 0xbd,
  0x08, 0x51, 0x63, 0xbe, 0x71, 0xa0, 0xbd, 0xbd, 0x8e, 0xba, 0x6b, 0xbe,
  0x54, 0x53, 0x38, 0xbd, 0x26, 0xe6, 0x08, 0xbe, 0x67, 0xde, 0x0d, 0xbe,
  0x5c, 0x8a, 0x99, 0x3c, 0x12, 0x7d, 0x03, 0xbe, 0x48, 0x98, 0x03, 0xbe,
  0xa7, 0x07, 0x87, 0x3d, 0x4e, 0x88, 0x80, 0xbd, 0xe5, 0x2e, 0xd0, 0xbd,
  0xf9, 0x12, 0x94, 0xbd, 0xc4, 0xc9, 0x35, 0xbc, 0x7c, 0x30, 0x41, 0xbe,
  0xe4, 0x73, 0x6a, 0xbd, 0x66, 0x1e, 0x94, 0x3d, 0xf7, 0xa2, 0x5e, 0x3c,
  0x29, 0xb6, 0x25, 0x3f, 0x13, 0xce, 0xe7, 0xbd, 0x40, 0x07, 0x94, 0xbc,
  0xfe, 0x43, 0x11, 0xbe, 0x07, 0x22, 0x79, 0xbe, 0x1c, 0x11, 0x22, 0xbe,
  0x1c, 0xe4, 0x8f, 0x3e, 0x54, 0x6b, 0x6f, 0x3e, 0xd2, 0x46, 0x9e, 0xbd,
  0x0b, 0x75, 0xfc, 0xbd, 0xc4, 0xd2, 0x9d, 0xbc, 0x9f, 0x4d, 0x84, 0xbd,
  0x86, 0x95, 0x01, 0xbe, 0xce, 0xee, 0xbd, 0xbe, 0x49, 0xe7, 0xca, 0x3d,
  0x62, 0x5e, 0xdc, 0xbd, 0x01, 0x69, 0xd1, 0xbd, 0x1d, 0x11, 0x96, 0xbd,
  0xb4, 0x55, 0x88, 0xbd, 0x26, 0xd6, 0xfa, 0x3e, 0x79, 0x67, 0x45, 0xbd,
  0xb7, 0x7b, 0x39, 0x3f, 0xf4, 0xae, 0x13, 0xba, 0xc4, 0x09, 0x55, 0xbd,
  0x41, 0xd9, 0x50, 0x3c, 0x47, 0x39, 0x1d, 0xbd, 0x3b, 0x5b, 0x18, 0xbd,
  0x7b, 0xc8, 0x70, 0xbd, 0x64, 0x9f, 0x94, 0xbd, 0x5d, 0xba, 0x3a, 0xbd,
  0x87, 0xbb, 0x4c, 0x3e, 0x81, 0xcf, 0x93, 0xbd, 0x6d, 0x28, 0x6f, 0x3d,
  0x75, 0x77, 0x77, 0x3c, 0xf2, 0x7b, 0xbe, 0xbb, 0xed, 0xda, 0xe4, 0xbc,
  0xa1, 0xed, 0x64, 0xbd, 0x94, 0x70, 0x1c, 0xbd, 0x09, 0x88, 0xa2, 0xbd,
  0xe0, 0x4f, 0x83, 0xbd, 0x4b, 0x22, 0x32, 0xbe, 0xe7, 0x1c, 0x7f, 0xbd,
  0x81, 0xcd, 0x4a, 0xbd, 0x8f, 0x72, 0xc3, 0x3c, 0xf5, 0x11, 0x0c, 0xbe,
  0x10, 0x67, 0x94, 0xbd, 0xdc, 0xcd, 0x94, 0xbe, 0xbc, 0x2a, 0xa0, 0xbe,
  0x0a, 0x49, 0x0e, 0x3e, 0xc0, 0x9f, 0x07, 0xbe, 0xa1, 0x21, 0x3a, 0xbd,
  0x58, 0x5c, 0x60, 0xbe, 0xab, 0xf8, 0x2f, 0xbe, 0x73, 0x29, 0x1c, 0x3c,
  0xac, 0xb8, 0x5d, 0xbe, 0x5b, 0xb0, 0x3e, 0xbe, 0xb8, 0xc4, 0x85, 0xbe,
  0x31, 0xda, 0x11, 0x3e, 0xfe, 0x88, 0x09, 0x3d, 0xa3, 0x2b, 0x2a, 0x3e,
  0x4d, 0xff, 0x0b, 0xbe, 0x4a, 0x1e, 0x25, 0xbd, 0x1d, 0x73, 0x69, 0xbe,
  0xc1, 0x66, 0xee, 0xbe, 0x07, 0x0d, 0xbf, 0xbd, 0x93, 0x5f, 0x61, 0x3d,
  0x58, 0x2e, 0x0c, 0xbe, 0xf7, 0x2e, 0xde, 0x3d, 0x84, 0x5c, 0x4a, 0xbe,
  0x11, 0xb3, 0x95, 0xbe, 0xb3, 0x66, 0x77, 0xbe, 0xd6, 0xff, 0xcc, 0xbe,
  0xe5, 0xe0, 0x05, 0xbe, 0x25, 0x59, 0x04, 0x3e, 0xdc, 0x9f, 0xbf, 0xbd,
  0x6f, 0x5c, 0x92, 0x3c, 0x10, 0xa7, 0x76, 0xbe, 0x25, 0x12, 0x9e, 0x3e,
  0xd3, 0x4c, 0x6c, 0xbd, 0xbe, 0xff, 0xb3, 0x3e, 0xaa, 0x2e, 0xfe, 0x3d,
  0x45, 0x2d, 0xba, 0x3c, 0x74, 0xc8, 0x8f, 0xbe, 0x5c, 0x8e, 0x7b, 0x3e,
  0x38, 0x2c, 0x33, 0xbf, 0xf7, 0x71, 0xcd, 0xbe, 0xbe, 0x8a, 0x56, 0xbe,
  0x05, 0xb4, 0xc2, 0x3d, 0x8d, 0x3e, 0x71, 0x3d, 0x73, 0xd0, 0xc8, 0xbe,
  0x2b, 0xe0, 0xfd, 0xbd, 0xa9, 0x94, 0x76, 0x3e, 0x76, 0x19, 0xfb, 0xbe,
  0x02, 0xe7, 0x55, 0x3d, 0xde, 0x97, 0xbd, 0xbc, 0x0b, 0x5b, 0xee, 0xbe,
  0x8d, 0x34, 0x84, 0xbd, 0x62, 0xc6, 0x21, 0xbd, 0x49, 0x61, 0xe7, 0x3d,
  0x43, 0xf3, 0x27, 0xbf, 0x10, 0xc0, 0x94, 0x3e, 0x49, 0xa5, 0x4c, 0xbe,
  0x2a, 0x8f, 0xb0, 0x3d, 0xee, 0x2b, 0xfb, 0xbe, 0xfd, 0xf9, 0x9a, 0xbd,
  0x67, 0xb3, 0x10, 0xbc, 0xb7, 0xf8, 0xb7, 0xbc, 0xc2, 0x2b, 0x95, 0xbe,
  0xa3, 0x26, 0x4f, 0xbe, 0x0c, 0xf0, 0x57, 0xbe, 0xb4, 0x80, 0x4a, 0x3c,
  0x8a, 0x8c, 0x92, 0xbe, 0xaa, 0xa6, 0x3d, 0x3d, 0xf8, 0x88, 0x4b, 0xbc,
  0xba, 0x14, 0xbd, 0xbd, 0x72, 0x2f, 0xb5, 0xbe, 0x82, 0xa5, 0x27, 0xbe,
  0x6f, 0x3f, 0xb4, 0x3d, 0x9b, 0x1c, 0xf4, 0x3d, 0x93, 0xa7, 0xb8, 0xbe,
  0x6a, 0x5c, 0x2c, 0xbf, 0x97, 0x02, 0x83, 0xbb, 0xd2, 0xb8, 0x33, 0xbe,
  0x56, 0xc2, 0xa8, 0xbe, 0xb6, 0xb8, 0x6e, 0x3e, 0xe1, 0xbd, 0xb3, 0x3e,
  0x24, 0x05, 0x86, 0x3e, 0xf5, 0x49, 0x23, 0x3e, 0x42, 0xc2, 0x39, 0xbe,
  0xe8, 0xec, 0x80, 0x3d, 0xd7, 0xf4, 0x9d, 0xbd, 0xe1, 0x2c, 0x98, 0x3e,
  0x75, 0xf1, 0xd6, 0x3c, 0xbd, 0xfd, 0x82, 0x3d, 0x83, 0xad, 0xe9, 0xbd,
  0x18, 0x1c, 0x1a, 0x3e, 0x81, 0x0e, 0x28, 0xbe, 0x72, 0xce, 0x36, 0x3d,
  0xac, 0xa0, 0x01, 0x3d, 0xf7, 0xdb, 0x76, 0xbd, 0xdc, 0xa2, 0x10, 0x3e,
  0xd2, 0x0e, 0x1e, 0x3e, 0xd5, 0xb6, 0x5d, 0x3d, 0xdf, 0x72, 0x4d, 0x3d,
  0x56, 0x2d, 0x73, 0x3d, 0x27, 0x9e, 0x23, 0x3e, 0x2c, 0x21, 0xae, 0xbc,
  0xd6, 0x39, 0xd2, 0x3e, 0x5d, 0x9e, 0x7d, 0xbd, 0xee, 0xb0, 0x57, 0xbe,
  0x01, 0x4a, 0xaf, 0xbd, 0xb9, 0xe3, 0x4a, 0x3e, 0x29, 0xcf, 0x63, 0x3c,
  0x4f, 0xd0, 0xcc, 0xbd, 0x2e, 0x2e, 0x1c, 0xbd, 0x75, 0x64, 0x41, 0xbc,
  0xd5, 0x39, 0x1d, 0xbe, 0xa4, 0x50, 0xa5, 0xbe, 0x91, 0xba, 0xa8, 0xbe,
  0x22, 0x1a, 0xb4, 0xbc, 0x50, 0xbb, 0x18, 0x3e, 0xfc, 0xf5, 0xac, 0xbd,
  0x4e, 0xff, 0x06, 0xbd, 0x93, 0xbf, 0x68, 0xbb, 0xd2, 0xc5, 0x28, 0xbe,
  0x41, 0x27, 0xd8, 0xbe, 0xdb, 0x1f, 0xb6, 0x3c, 0x86, 0xf5, 0xf5, 0xbd,
  0xa3, 0x74, 0x1c, 0xbe, 0x46, 0x9e, 0xd1, 0xbd, 0x0e, 0x9f, 0x52, 0xbd,
  0x93, 0x42, 0x83, 0xbe, 0x1c, 0xfa, 0x2f, 0xbd, 0x40, 0x74, 0x71, 0xbd,
  0xdf, 0xbe, 0xbd, 0xbd, 0x10, 0x8c, 0x99, 0x3e, 0x15, 0x60, 0x88, 0xbd,
  0x85, 0x04, 0x88, 0xbd, 0xa9, 0x20, 0x79, 0xbc, 0x67, 0x30, 0x76, 0xbd,
  0x79, 0xd0, 0x9a, 0xbd, 0x74, 0xb0, 0x87, 0xbc, 0x97, 0x43, 0xf5, 0xbc,
  0xbe, 0xd4, 0xa9, 0x3c, 0xd8, 0x14, 0x08, 0xbd, 0x6b, 0xd9, 0xe5, 0x3d,
  0x1d, 0x9e, 0x82, 0x3e, 0x02, 0x78, 0xf1, 0xbd, 0xba, 0x4f, 0x50, 0xbd,
  0x73, 0x4d, 0xc6, 0x3d, 0x8b, 0x5a, 0x86, 0xbd, 0xc2, 0xdd, 0x58, 0x3d,
  0xd1, 0xc6, 0x30, 0xbd, 0x2f, 0x70, 0x07, 0x3e, 0x23, 0x59, 0xa8, 0x3d,
  0x92, 0xf2, 0xe9, 0x3d, 0xcc, 0x6f, 0xe3, 0xbc, 0x40, 0xa0, 0x55, 0xbd,
  0x87, 0x24, 0xa7, 0xbd, 0x60, 0x74, 0x88, 0xbd, 0xe4, 0x31, 0x6c, 0x3b,
  0xd5, 0xc5, 0x49, 0xbc, 0x9c, 0xd0, 0x01, 0xbd, 0x2b, 0xf0, 0xbb, 0x3d,
  0xf8, 0x10, 0xd6, 0xbd, 0x54, 0xa7, 0xb5, 0xbd, 0x48, 0x42, 0xdc, 0x3c,
  0x9f, 0x70, 0x4f, 0xbe, 0xeb, 0xf2, 0x6d, 0x3e, 0xbd, 0xf4, 0xa4, 0xbd,
  0xcf, 0x50, 0xad, 0xbe, 0x62, 0xac, 0x66, 0xbe, 0x6a, 0xe7, 0x7e, 0xbd,
  0x4f, 0xfc, 0x2b, 0x3e, 0x79, 0xab, 0x51, 0x3c, 0x9d, 0x61, 0x1f, 0xbe,
  0xd3, 0xbc, 0xf7, 0xbd, 0x95, 0xac, 0x1a, 0xbd, 0x0a, 0x5b, 0xb3, 0xbe,
  0xa6, 0x53, 0x26, 0x3f, 0x2f, 0x04, 0x8a, 0xbd, 0x6f, 0x88, 0x26, 0xbd,
  0x74, 0xce, 0x83, 0x3d, 0x04, 0xf8, 0xd8, 0xbd, 0xb2, 0x74, 0x0a, 0x3d,
  0xae, 0x07, 0xce, 0x3b, 0x07, 0x02, 0xbf, 0xbe, 0x36, 0x33, 0x21, 0xbd,
  0xa6, 0x3b, 0xcd, 0x3a, 0xb0, 0xb9, 0xca, 0x3e, 0xc5, 0xd4, 0x24, 0x3e,
  0x7b, 0x86, 0x8f, 0x3d, 0x64, 0x5a, 0x96, 0x3e, 0xd9, 0xe1, 0xa7, 0x3d,
  0x15, 0x57, 0x9c, 0xbe, 0x9d, 0x46, 0x51, 0xbd, 0x11, 0xeb, 0x99, 0x3d,
  0x37, 0x12, 0xbe, 0x3d, 0x69, 0x46, 0x54, 0x3d, 0x41, 0xa7, 0xd0, 0x3d,
  0x82, 0x4e, 0x67, 0xbd, 0x0e, 0xfc, 0x0d, 0x3f, 0xa0, 0x04, 0x2f, 0xbe,
  0x1b, 0x35, 0x4d, 0x3d, 0x57, 0x5c, 0xa1, 0xbd, 0xa3, 0x51, 0x19, 0xbe,
  0x6f, 0x9c, 0xbe, 0xbd, 0xa0, 0x12, 0x0d, 0xbd, 0x97, 0x7c, 0xc9, 0x3b,
  0x9d, 0x54, 0x4b, 0xbd, 0xf3, 0x13, 0xe9, 0xbd, 0x09, 0xf3, 0xbe, 0x3c,
  0x29, 0x46, 0xeb, 0x3b, 0x51, 0x71, 0xd2, 0xbd, 0x79, 0xa7, 0x19, 0x3c,
  0x0b, 0x58, 0x4e, 0xbd, 0x4b, 0x19, 0xd3, 0x3c, 0x82, 0x07, 0x9e, 0xbd,
  0x1e, 0x05, 0xbd, 0xbd, 0x32, 0x79, 0x26, 0xbc, 0x19, 0xce, 0x11, 0x3d,
  0x58, 0x8d, 0x2f, 0xbe, 0x7f, 0x7e, 0xaf, 0x3d, 0x6a, 0x6e, 0xe3, 0xbd,
  0x85, 0x6b, 0xf9, 0xbd, 0xae, 0x35, 0x98, 0xbd, 0xfc, 0x0b, 0x15, 0xbd,
  0x89, 0x7f, 0x30, 0xbe, 0xd8, 0x94, 0x26, 0xbd, 0x46, 0x10, 0x03, 0xbe,
  0xce, 0xc0, 0xf4, 0x3e, 0xa4, 0xaa, 0x69, 0xbe, 0xf7, 0xb2, 0xd0, 0x3c,
  0xd4, 0xa8, 0xfb, 0xbd, 0xb7, 0x98, 0xa7, 0x3c, 0x94, 0x22, 0xd0, 0xbd,
  0x43, 0x4f, 0xee, 0x3c, 0x14, 0xa6, 0x96, 0xbd, 0xae, 0xef, 0xc1, 0xbc,
  0x87, 0xd6, 0x63, 0xbe, 0xb4, 0x88, 0x7a, 0x3e, 0x6a, 0x40, 0xf6, 0xbd,
  0x7d, 0x30, 0x54, 0x3d, 0x04, 0xa8, 0x92, 0xbd, 0xa2, 0x82, 0xcc, 0x3d,
  0x70, 0xc4, 0xe6, 0xbc, 0x17, 0xc6, 0x4e, 0xbe, 0xe2, 0xb9, 0x38, 0x3e,
  0x84, 0x24, 0x17, 0xbe, 0x34, 0xe7, 0xfc, 0xbd, 0xc3, 0xe0, 0xdc, 0x3d,
  0x50, 0xa7, 0x6b, 0xbc, 0x5a, 0xa7, 0x87, 0xbd, 0x24, 0x0d, 0x96, 0xbe,
  0x59, 0x27, 0xbe, 0xbe, 0xee, 0x8b, 0x77, 0xbe, 0xa7, 0x1d, 0x62, 0x3d,
  0x02, 0xc8, 0x70, 0xbe, 0x5b, 0x2a, 0xd1, 0x3c, 0x86, 0x5e, 0xcc, 0xbe,
  0x54, 0xaa, 0x1c, 0xbe, 0x38, 0xd6, 0x2c, 0xbe, 0xb7, 0x2a, 0x43, 0x3f,
  0x62, 0xd5, 0x09, 0x3d, 0xc3, 0xbc, 0x38, 0xbc, 0xe9, 0x31, 0x07, 0xbe,
  0x14, 0x98, 0xa4, 0x3d, 0x09, 0xcb, 0x71, 0x3d, 0xe6, 0x21, 0x53, 0xbe,
  0x0a, 0x10, 0xbc, 0xbd, 0xd7, 0x70, 0xd3, 0x3d, 0xaf, 0xff, 0x8e, 0xbd,
  0x56, 0x8d, 0x7e, 0xbd, 0x1d, 0x30, 0x48, 0xbe, 0x1b, 0xb7, 0x1d, 0xbd,
  0x9a, 0x9c, 0xa4, 0x3c, 0x97, 0xe2, 0x92, 0x3a, 0x0a, 0x61, 0x8c, 0xbd,
  0x20, 0xb0, 0xc8, 0x3b, 0x59, 0xda, 0xc0, 0xbd, 0x1c, 0x42, 0x0a, 0xbd,
  0x9b, 0x16, 0xa4, 0xbd, 0x9a, 0x08, 0x30, 0xbd, 0xbe, 0x1b, 0x17, 0x3d,
  0x20, 0x3f, 0x8d, 0xbb, 0xd4, 0x40, 0xa6, 0xbb, 0x69, 0x5d, 0x34, 0x3e,
  0x0f, 0xc3, 0x00, 0xbe, 0x9a, 0x26, 0x92, 0x3e, 0xf4, 0x84, 0x6d, 0xbd,
  0x81, 0xe9, 0x8c, 0xbd, 0x02, 0x85, 0xfc, 0x3d, 0x0b, 0x3a, 0x91, 0xbd,
  0xff, 0x3d, 0xd5, 0x3d, 0xae, 0xe8, 0x00, 0xbd, 0xd8, 0xd1, 0x2d, 0xbe,
  0x4c, 0xca, 0x6b, 0xbe, 0x4e, 0x52, 0x8f, 0xbd, 0xe4, 0xb9, 0x1b, 0x3b,
  0x2e, 0x29, 0x10, 0xbe, 0xd1, 0x5f, 0xac, 0xbd, 0x5e, 0xa9, 0x82, 0xbd,
  0xf9, 0xeb, 0xda, 0xbd, 0x6b, 0x54, 0xb0, 0x3c, 0x18, 0xf1, 0xeb, 0xbd,
  0xaa, 0xa8, 0xfd, 0xbc, 0x62, 0x40, 0x89, 0xbd, 0x42, 0x1f, 0xe6, 0x3e,
  0x70, 0xc7, 0xc5, 0xbe, 0xb1, 0x69, 0x92, 0xbe, 0x47, 0x1a, 0x7b, 0xbe,
  0x36, 0xf5, 0xe4, 0x3d, 0xf4, 0x0b, 0xa7, 0xbd, 0xcf, 0xdf, 0x5d, 0xbd,
  0x26, 0xf7, 0xc9, 0xbc, 0x20, 0x8f, 0xdc, 0x3d, 0x8c, 0x32, 0x24, 0xbf,
  0xb4, 0x8b, 0xa9, 0xbe, 0x30, 0x94, 0xcf, 0x3d, 0xf5, 0x02, 0x1e, 0xbe,
  0x58, 0x43, 0x01, 0x3f, 0x48, 0x09, 0xe4, 0x3c, 0xda, 0xb3, 0xa4, 0x3c,
  0x91, 0x91, 0xb3, 0xbe, 0x7b, 0x47, 0xda, 0xbe, 0xbe, 0x8a, 0xc5, 0xbe,
  0xbf, 0xd4, 0xe9, 0xbd, 0xee, 0x54, 0x63, 0xbf, 0xf6, 0x6f, 0x04, 0x3e,
  0x65, 0x0b, 0x11, 0xbe, 0xed, 0x3d, 0xca, 0xbe, 0x1f, 0xd1, 0x91, 0xbe,
  0xd5, 0x60, 0xd2, 0xbe, 0x2e, 0xb7, 0xb9, 0x3d, 0xc2, 0x66, 0xd1, 0x3d,
  0x77, 0xdd, 0x18, 0xbf, 0xb3, 0xb5, 0x35, 0x3e, 0x3c, 0xcc, 0xbb, 0xbd,
  0x41, 0xce, 0x20, 0xbf, 0x01, 0x55, 0x1e, 0x3d, 0xae, 0x74, 0x85, 0xbd,
  0x7f, 0x33, 0x41, 0xbd, 0x3b, 0xc2, 0xe1, 0x3d, 0xd9, 0x0b, 0xde, 0x3d,
  0x48, 0xb7, 0x68, 0xbe, 0xba, 0x35, 0xc1, 0x3d, 0x20, 0x22, 0x00, 0xbf,
  0xbd, 0xd8, 0x6c, 0xbd, 0xcd, 0x17, 0x2a, 0x3e, 0x69, 0x68, 0x1d, 0x3e,
  0x8e, 0x60, 0x99, 0x3e, 0xee, 0x64, 0x61, 0x3e, 0x73, 0x86, 0xbf, 0xbe,
  0x60, 0xd5, 0xcd, 0x3d, 0x28, 0xb0, 0xc5, 0xbd, 0x30, 0xd9, 0x67, 0xbe,
  0xcf, 0x09, 0x9b, 0x3c, 0x0a, 0x8d, 0x2e, 0x3d, 0xb9, 0x70, 0xa3, 0xbd,
  0x9d, 0x71, 0xdf, 0xbe, 0xd0, 0x6a, 0xe1, 0xbd, 0xfb, 0x9a, 0xe2, 0xbd,
  0x7a, 0xc7, 0xa3, 0xbe, 0xc5, 0x72, 0xab, 0xbe, 0x26, 0x81, 0xfd, 0xbc,
  0xcc, 0xa0, 0x1e, 0x3f, 0x5c, 0xea, 0x64, 0xbd, 0xc7, 0x3e, 0xe6, 0xbd,
  0x30, 0xd5, 0x7a, 0xbe, 0x6a, 0x7b, 0x99, 0xbc, 0x8c, 0xae, 0x93, 0xbe,
  0xcc, 0xe4, 0xbb, 0x3e, 0x26, 0xba, 0xb2, 0xbc, 0x84, 0xcd, 0x21, 0xbe,
  0x68, 0x41, 0xd4, 0xbe, 0x37, 0x3f, 0xd0, 0x3d, 0xb6, 0x59, 0x9e, 0x3e,
  0xc8, 0x8b, 0xdc, 0x3c, 0x7f, 0x29, 0x92, 0xbe, 0x00, 0x76, 0x75, 0x3c,
  0x78, 0x1e, 0x45, 0x3d, 0x01, 0xd6, 0x4b, 0xbe, 0x0e, 0x52, 0xcc, 0xbe,
  0x21, 0x84, 0x71, 0xbd, 0x0d, 0x78, 0xd7, 0x3d, 0xe3, 0xba, 0xec, 0xbd,
  0x25, 0x5d, 0x33, 0xbe, 0x73, 0xae, 0x08, 0x3b, 0x06, 0x22, 0xd6, 0xbe,
  0x7b, 0x36, 0x19, 0xbe, 0xa1, 0xa6, 0x0b, 0x3f, 0x50, 0x3e, 0x9b, 0x3c,
  0xa0, 0x6f, 0x8e, 0x3c, 0xcb, 0xbc, 0x68, 0xbd, 0xb0, 0x1d, 0x44, 0x3e,
  0xa9, 0x8a, 0x9e, 0xbd, 0x61, 0xc3, 0x93, 0xbe, 0xbd, 0x74, 0xa7, 0xbd,
  0x70, 0x65, 0x8a, 0x3e, 0x6b, 0x43, 0xa5, 0xbb, 0x8e, 0x2e, 0xcb, 0xbd,
  0x68, 0x37, 0x83, 0xbe, 0x0c, 0x6d, 0x0c, 0xbe, 0x7a, 0x79, 0x2b, 0xbe,
  0x6f, 0x0e, 0xae, 0xbd, 0xe3, 0xf6, 0xf7, 0xbd, 0xa6, 0x02, 0x35, 0x3e,
  0xe0, 0xec, 0x28, 0x3d, 0x6d, 0x78, 0x1f, 0xbe, 0x7c, 0xba, 0x8b, 0xbe,
  0xec, 0x9f, 0x06, 0xbe, 0x44, 0x6f, 0xfd, 0xbb, 0x6f, 0xdd, 0xb9, 0x3e,
  0x1f, 0x88, 0x71, 0xbd, 0x86, 0x5f, 0x99, 0xbd, 0xe0, 0x65, 0xed, 0xbd,
  0x9c, 0x5e, 0xe9, 0xbd, 0x78, 0x7f, 0x40, 0xbd, 0x99, 0x6f, 0x28, 0xbe,
  0x81, 0x95, 0x30, 0xbd, 0xe2, 0xdd, 0xff, 0xff, 0x10, 0x00, 0x00, 0x00,
  0x0a, 0x00, 0x00, 0x00, 0x1c, 0x00, 0x00, 0x00, 0x38, 0x00, 0x00, 0x00,
  0x04, 0x00, 0x00, 0x00, 0x10, 0x00, 0x00, 0x00, 0x04, 0x00, 0x00, 0x00,
  0x01, 0x00, 0x00, 0x00, 0x08, 0x00, 0x00, 0x00, 0x1a, 0x00, 0x00, 0x00,
  0x73, 0x65, 0x71, 0x75, 0x65, 0x6e, 0x74, 0x69, 0x61, 0x6c, 0x2f, 0x63,
  0x6f, 0x6e, 0x76, 0x32, 0x64, 0x5f, 0x31, 0x2f, 0x43, 0x6f, 0x6e, 0x76,
  0x32, 0x44, 0x00, 0x00, 0x58, 0xdd, 0xff, 0xff, 0x62, 0xde, 0xff, 0xff,
  0x04, 0x00, 0x00, 0x00, 0x80, 0x01, 0x00, 0x00, 0x4f, 0x3b, 0xbb, 0xbd,
  0x76, 0x10, 0x15, 0xbd, 0xc1, 0x4f, 0x9c, 0x3c, 0xa2, 0x8a, 0xdb, 0x3b,
  0xfc, 0x89, 0x06, 0x3e, 0xfd, 0xe5, 0x22, 0x3d, 0x0e, 0x5e, 0x3a, 0x3e,
  0x9f, 0xba, 0xbd, 0xbd, 0x91, 0xd8, 0x9a, 0xbd, 0xeb, 0xe4, 0x7a, 0x3e,
  0xf4, 0x2d, 0xe3, 0xbd, 0x35, 0x5e, 0x29, 0x3e, 0x67, 0x5f, 0x67, 0x3d,
  0xe6, 0x81, 0x8f, 0xbd, 0x0e, 0xc5, 0x45, 0xbd, 0x79, 0x1f, 0x13, 0xbe,
  0xc7, 0x5d, 0x7d, 0xbe, 0x85, 0xb7, 0xcb, 0xbe, 0x91, 0x97, 0x3b, 0x3e,
  0x03, 0xf7, 0xaa, 0x3e, 0x18, 0x85, 0xad, 0x3e, 0xea, 0x9e, 0x05, 0x3e,
  0x5c, 0xbe, 0xd8, 0x3d, 0x0b, 0xb9, 0x25, 0x3e, 0x3d, 0x71, 0xca, 0xbe,
  0x7c, 0xd6, 0xbc, 0xbd, 0xc8, 0xf6, 0x87, 0x3c, 0x45, 0x14, 0x92, 0xbe,
  0x81, 0xd5, 0x55, 0x3e, 0x9c, 0xfe, 0x2c, 0x3d, 0xdf, 0xf2, 0xd7, 0x3e,
  0xb5, 0xf8, 0x16, 0x3e, 0x31, 0xf1, 0xf4, 0xbd, 0xc7, 0x6e, 0x97, 0x3e,
  0x82, 0xa8, 0x3b, 0xbe, 0x77, 0xc0, 0xcf, 0x3d, 0x9a, 0xfd, 0x7e, 0x3c,
  0xe7, 0xf0, 0xe4, 0x3d, 0x6d, 0xd8, 0x66, 0x3e, 0x8f, 0xac, 0x53, 0x3d,
  0x94, 0x88, 0xdd, 0x3d, 0xc3, 0x34, 0xf3, 0x3d, 0x4a, 0x83, 0xda, 0xbc,
  0x59, 0x11, 0x8f, 0x3c, 0xd3, 0xe9, 0xfd, 0x3c, 0x28, 0x55, 0xd6, 0xbd,
  0x09, 0x65, 0xe0, 0xbd, 0xdf, 0xe6, 0x70, 0x3d, 0x1a, 0x3f, 0x5b, 0x3c,
  0x33, 0x1c, 0xf4, 0x3e, 0xe8, 0xcb, 0x2a, 0x3e, 0x64, 0xee, 0xce, 0x3c,
  0xc0, 0x2e, 0x60, 0x3e, 0x32, 0x44, 0xff, 0x3d, 0x77, 0xb5, 0xeb, 0x3d,
  0x08, 0x5e, 0x74, 0xbe, 0x41, 0x39, 0xc9, 0xbd, 0x3a, 0xa4, 0xb9, 0xbd,
  0xba, 0x20, 0xb1, 0xbe, 0x08, 0x35, 0x78, 0xbe, 0x36, 0x83, 0xb0, 0x3e,
  0x7b, 0xbd, 0x1b, 0xbd, 0x27, 0xc8, 0x6a, 0xbe, 0xfd, 0x8c, 0x8e, 0x3d,
  0x58, 0x27, 0xc9, 0xbd, 0x28, 0xc8, 0x75, 0x3d, 0x9a, 0x7e, 0x08, 0x3e,
  0x0d, 0x51, 0xa1, 0x3e, 0x16, 0x61, 0x1f, 0xbe, 0x1f, 0x8a, 0x77, 0x3e,
  0x2b, 0x62, 0xe0, 0xbc, 0xdd, 0x03, 0x08, 0x3e, 0x7f, 0x15, 0x23, 0xbe,
  0xed, 0x7a, 0x91, 0x3d, 0x61, 0x3a, 0xce, 0x3d, 0x74, 0x58, 0x66, 0xbd,
  0x00, 0x46, 0x87, 0x3a, 0xe0, 0xd1, 0x98, 0x3d, 0x73, 0xad, 0x65, 0xbd,
  0x4a, 0x10, 0xf2, 0x3d, 0xb4, 0xab, 0xe1, 0xbd, 0x66, 0x50, 0xaa, 0xbb,
  0x4c, 0xb1, 0x1b, 0x3e, 0x72, 0x58, 0x74, 0x3d, 0xa0, 0x2c, 0x80, 0x3e,
  0x83, 0x16, 0x0b, 0x3c, 0xd5, 0x5e, 0x22, 0xbe, 0xb4, 0xd1, 0xc9, 0x3e,
  0x29, 0xae, 0x1a, 0x3e, 0x2d, 0x65, 0x32, 0x3e, 0xad, 0x59, 0xa3, 0xbd,
  0x5d, 0xdc, 0xb0, 0x3e, 0x5d, 0xde, 0x4a, 0x3e, 0x48, 0xa4, 0x93, 0xbe,
  0x23, 0x66, 0xaa, 0xbe, 0xf5, 0x8c, 0x0e, 0xbe, 0xba, 0xdf, 0xff, 0xff,
  0x10, 0x00, 0x00, 0x00, 0x09, 0x00, 0x00, 0x00, 0x1c, 0x00, 0x00, 0x00,
  0x38, 0x00, 0x00, 0x00, 0x04, 0x00, 0x00, 0x00, 0x08, 0x00, 0x00, 0x00,
  0x04, 0x00, 0x00, 0x00, 0x03, 0x00, 0x00, 0x00, 0x01, 0x00, 0x00, 0x00,
  0x18, 0x00, 0x00, 0x00, 0x73, 0x65, 0x71, 0x75, 0x65, 0x6e, 0x74, 0x69,
  0x61, 0x6c, 0x2f, 0x63, 0x6f, 0x6e, 0x76, 0x32, 0x64, 0x2f, 0x43, 0x6f,
  0x6e, 0x76, 0x32, 0x44, 0x00, 0x00, 0x00, 0x00, 0x30, 0xdf, 0xff, 0xff,
  0x3a, 0xe0, 0xff, 0xff, 0x04, 0x00, 0x00, 0x00, 0x00, 0x01, 0x00, 0x00,
  0x9c, 0x29, 0x77, 0x3d, 0x87, 0x14, 0x90, 0x3c, 0xc6, 0x50, 0xd6, 0x3d,
  0xe1, 0x71, 0x93, 0x3d, 0x8f, 0x1f, 0xc9, 0xbe, 0x7b, 0x4b, 0x11, 0xbd,
  0x79, 0xe7, 0xfd, 0xbd, 0x8b, 0xbb, 0xd7, 0xbd, 0x57, 0xb2, 0xd6, 0x3e,
  0x40, 0xba, 0x1f, 0x3d, 0x39, 0xc3, 0xb9, 0x3d, 0xa9, 0x99, 0xbc, 0xbe,
  0xaf, 0xa3, 0xa8, 0x3e, 0x71, 0x74, 0x5e, 0x3d, 0x54, 0x57, 0xd8, 0xbb,
  0x85, 0xe4, 0x18, 0x3d, 0x54, 0xe5, 0xb8, 0x3d, 0x9b, 0xc3, 0x99, 0xbd,
  0xce, 0x0f, 0x20, 0x3e, 0x31, 0xbc, 0x42, 0x3d, 0xb6, 0x0c, 0x87, 0xbe,
  0x4a, 0xcc, 0xc5, 0xbe, 0x02, 0x78, 0xac, 0xbd, 0x85, 0x7d, 0x45, 0x3d,
  0x53, 0x2b, 0xc5, 0x3e, 0x75, 0x85, 0xaf, 0x3d, 0x12, 0xb7, 0x34, 0x3e,
  0xc2, 0x3d, 0xb2, 0xbe, 0x36, 0xe7, 0xf7, 0x3d, 0x1b, 0x46, 0xf8, 0x3d,
  0xc1, 0x66, 0xf4, 0x3d, 0xf2, 0x2f, 0xc6, 0xbe, 0xac, 0x18, 0x21, 0x3e,
  0x1f, 0x69, 0x42, 0xbd, 0xdf, 0xda, 0xee, 0x3d, 0x0a, 0x47, 0x98, 0x3b,
  0x57, 0x6d, 0x48, 0xbe, 0x2b, 0xd3, 0x2d, 0xbd, 0x0d, 0x48, 0x5e, 0xbe,
  0xb6, 0x6c, 0x06, 0x3e, 0xa3, 0xdd, 0x78, 0x3e, 0xfa, 0x88, 0x22, 0x3d,
  0xac, 0xa9, 0xf5, 0x3d, 0x83, 0x52, 0xb4, 0xbe, 0x30, 0x19, 0x88, 0x3d,
  0x66, 0x69, 0x2d, 0x3d, 0xe9, 0xde, 0x5d, 0x3d, 0x2e, 0x87, 0x07, 0x3e,
  0x85, 0xf9, 0x2d, 0x3d, 0xf5, 0x2c, 0x06, 0x3e, 0x9c, 0xea, 0xda, 0x3d,
  0x97, 0x6f, 0x80, 0xba, 0x9c, 0x23, 0x33, 0xbe, 0x80, 0x84, 0x9a, 0x3e,
  0x7c, 0xd1, 0x5b, 0xbe, 0xea, 0x2f, 0xb8, 0x3d, 0x74, 0x9f, 0xb6, 0x3e,
  0xab, 0x83, 0x37, 0x3d, 0x37, 0x58, 0x4c, 0x3e, 0x2f, 0x24, 0xe8, 0xbe,
  0xc6, 0x3e, 0x79, 0x3e, 0xb9, 0x04, 0x19, 0x3d, 0xc4, 0xb5, 0xec, 0x3d,
  0x9f, 0x3f, 0xa5, 0x3e, 0x12, 0xe1, 0xff, 0xff, 0x10, 0x00, 0x00, 0x00,
  0x08, 0x00, 0x00, 0x00, 0x14, 0x00, 0x00, 0x00, 0x30, 0x00, 0x00, 0x00,
  0x02, 0x00, 0x00, 0x00, 0x04, 0x00, 0x00, 0x00, 0x10, 0x00, 0x00, 0x00,
  0x19, 0x00, 0x00, 0x00, 0x73, 0x65, 0x71, 0x75, 0x65, 0x6e, 0x74, 0x69,
  0x61, 0x6c, 0x2f, 0x64, 0x65, 0x6e, 0x73, 0x65, 0x5f, 0x31, 0x2f, 0x4d,
  0x61, 0x74, 0x4d, 0x75, 0x6c, 0x00, 0x00, 0x00, 0x80, 0xe0, 0xff, 0xff,
  0x8a, 0xe1, 0xff, 0xff, 0x04, 0x00, 0x00, 0x00, 0x00, 0x1c, 0x00, 0x00,
  0x4b, 0xbe, 0x60, 0xbe, 0x38, 0x48, 0x7b, 0x3d, 0x1c, 0x5e, 0x77, 0xbe,
  0x2f, 0x53, 0xfb, 0x3d, 0x3e, 0x1e, 0x7f, 0x3d, 0xbc, 0x9a, 0x17, 0xbe,
  0xca, 0xb4, 0xbe, 0xbd, 0x06, 0xf1, 0x0d, 0xbf, 0xc2, 0x12, 0xc2, 0xbc,
  0x80, 0xda, 0x10, 0xbe, 0x1f, 0x3b, 0x1d, 0x3d, 0xb6, 0x54, 0x83, 0xbd,
  0x0f, 0x2a, 0x62, 0x3e, 0x17, 0x3d, 0xb8, 0xbd, 0x65, 0x99, 0xa8, 0xba,
  0xb0, 0x20, 0x52, 0xbd, 0x5b, 0x40, 0x66, 0x3d, 0xce, 0xab, 0x23, 0x3d,
  0x4c, 0xe2, 0xb4, 0xbc, 0xe6, 0x64, 0xa4, 0x3e, 0x96, 0x1b, 0x48, 0x3e,
  0xa8, 0x10, 0xb8, 0x3e, 0x0d, 0xc1, 0x70, 0x3b, 0x67, 0x2d, 0x1b, 0xbf,
  0x00, 0xa1, 0x4b, 0x3e, 0xa0, 0x88, 0x88, 0xbe, 0x91, 0x15, 0x79, 0x3e,
  0x21, 0x7d, 0x53, 0xbe, 0xd4, 0xe6, 0xa0, 0x3e, 0xee, 0x93, 0x1b, 0x3f,
  0x0c, 0x9a, 0xa8, 0x3c, 0x4c, 0x1f, 0xd5, 0xbb, 0xc6, 0x28, 0x26, 0x3d,
  0xd8, 0x71, 0x07, 0xbd, 0xb3, 0x12, 0x5d, 0x3c, 0x59, 0xcf, 0xae, 0x3d,
  0x00, 0xd8, 0xb1, 0x3d, 0x46, 0x30, 0x8d, 0x3e, 0xa0, 0x32, 0x8c, 0xbd,
  0x5c, 0x1f, 0xe8, 0xbe, 0x01, 0xf8, 0xfd, 0x3c, 0x56, 0xfe, 0xee, 0xbc,
  0x00, 0xd8, 0xd3, 0xbd, 0x92, 0xee, 0xdf, 0xbd, 0xb2, 0xa2, 0x8b, 0x3e,
  0xd8, 0xb1, 0xde, 0x3e, 0x30, 0x3e, 0x29, 0x3e, 0xd0, 0xc3, 0x17, 0xbd,
  0xa4, 0x45, 0x92, 0xbd, 0x20, 0x81, 0xd0, 0xbd, 0x14, 0xa8, 0x95, 0xbe,
  0xef, 0x80, 0xbc, 0xbd, 0x73, 0x3a, 0xb4, 0x3c, 0x99, 0x65, 0x81, 0x3e,
  0xe8, 0x0a, 0x36, 0x3e, 0x13, 0xe5, 0x34, 0xbe, 0x58, 0x4d, 0x44, 0xbd,
  0x92, 0xea, 0x5f, 0xbe, 0xcd, 0x60, 0x88, 0x3c, 0x3a, 0xef, 0xae, 0xbd,
  0xa3, 0xcc, 0x84, 0x3e, 0xa6, 0x8e, 0xe6, 0x3e, 0xbc, 0xae, 0x1f, 0x3d,
  0xca, 0x5b, 0x9e, 0x3e, 0xa9, 0x7d, 0x61, 0xbd, 0x51, 0x4d, 0x8f, 0x3c,
  0xa9, 0x4b, 0x7a, 0xbe, 0x80, 0xda, 0x8d, 0x3d, 0x13, 0xd0, 0x57, 0x3e,
  0x95, 0x62, 0xe0, 0x3d, 0xd3, 0x0f, 0x97, 0x3e, 0x21, 0x68, 0x5e, 0x3c,
  0x2b, 0x11, 0xcf, 0xbd, 0xb6, 0x02, 0x8f, 0x3d, 0x88, 0x4d, 0x8d, 0x3c,
  0xa9, 0x31, 0x17, 0xbe, 0x19, 0xa7, 0x8f, 0x3e, 0xd0, 0x5b, 0x88, 0x3e,
  0xa8, 0x1e, 0x9e, 0xbd, 0xde, 0x6f, 0x34, 0x3e, 0xb0, 0x6f, 0x49, 0xbe,
  0x4d, 0xaf, 0x9f, 0xbc, 0x6d, 0x65, 0x52, 0xbe, 0xd5, 0x1c, 0xbc, 0x3e,
  0x20, 0xbb, 0x9f, 0xbe, 0x45, 0x5d, 0xc9, 0x3d, 0x8e, 0x82, 0x42, 0x3d,
  0x94, 0x68, 0xcc, 0x3d, 0x9d, 0x76, 0xd1, 0x3d, 0x44, 0x49, 0xbf, 0xbc,
  0x13, 0x7b, 0x2d, 0x3c, 0xf1, 0xd2, 0xa0, 0xbd, 0xf2, 0x4c, 0x89, 0xbd,
  0xf0, 0x8b, 0xa4, 0x3e, 0xc6, 0x73, 0x86, 0xbd, 0xd1, 0x6b, 0x28, 0x3e,
  0x93, 0x1f, 0x6e, 0xbe, 0x69, 0xc5, 0x72, 0xbe, 0x5e, 0x3b, 0x16, 0xbe,
  0x9a, 0x4f, 0x03, 0x3f, 0x29, 0x41, 0xd4, 0xbe, 0x96, 0xdd, 0x31, 0x3e,
  0x1f, 0x62, 0x91, 0xbd, 0x27, 0xa2, 0x98, 0xbd, 0x5b, 0x1c, 0xdf, 0xbd,
  0x1d, 0x25, 0x3c, 0x3e, 0x32, 0xb6, 0x10, 0xbd, 0xf9, 0x93, 0xc3, 0xbd,
  0xe7, 0xa7, 0xb2, 0xbe, 0xea, 0x32, 0x33, 0x3e, 0x11, 0xb7, 0x42, 0x3e,
  0x22, 0x15, 0x14, 0xbe, 0xd2, 0xef, 0xc6, 0x3d, 0xd4, 0xef, 0x23, 0xbe,
  0x1d, 0xa5, 0xd4, 0xbd, 0x03, 0x8c, 0x0b, 0x3e, 0xe6, 0x46, 0x16, 0x3e,
  0x45, 0xb7, 0x9c, 0x3d, 0x26, 0xe9, 0xfd, 0xbc, 0x00, 0xb5, 0xe1, 0x3c,
  0xe9, 0x36, 0xd8, 0xbd, 0x5b, 0x46, 0x5f, 0xbe, 0xa8, 0xee, 0x82, 0x3e,
  0x91, 0x8c, 0x32, 0xbe, 0x39, 0x29, 0x55, 0x3e, 0xf8, 0xa3, 0xab, 0x3c,
  0x61, 0xf3, 0x23, 0xbe, 0xdd, 0x3f, 0xae, 0xbd, 0x3c, 0xf7, 0x78, 0x3e,
  0x48, 0xc9, 0xe6, 0x3b, 0xe9, 0x3c, 0x3d, 0xbd, 0x68, 0x55, 0xd3, 0x3e,
  0x35, 0x38, 0x55, 0x3e, 0xdd, 0xf5, 0xe8, 0xbd, 0xf8, 0x16, 0x36, 0xbd,
  0xe3, 0x97, 0x44, 0x3d, 0x9c, 0xac, 0xa1, 0xbc, 0x99, 0x14, 0x38, 0xbe,
  0x04, 0x50, 0xc5, 0x3b, 0x25, 0x9b, 0xb5, 0xbe, 0x59, 0x8c, 0x0a, 0xbe,
  0x7e, 0x15, 0x18, 0xbe, 0xda, 0x0e, 0x53, 0xbe, 0x7f, 0x40, 0x78, 0xbd,
  0x48, 0x05, 0x68, 0xbd, 0x49, 0x0b, 0x35, 0xbd, 0x05, 0x4b, 0x80, 0xbe,
  0x8d, 0x3a, 0x8a, 0x3e, 0xf3, 0x9f, 0xc4, 0x3e, 0x34, 0xce, 0x10, 0x3c,
  0x35, 0x4b, 0xb5, 0x3b, 0xe7, 0xcd, 0xab, 0xbd, 0x12, 0x51, 0xb7, 0xbd,
  0xd8, 0xb2, 0xc0, 0xbe, 0x0f, 0x7a, 0x70, 0x3d, 0xa6, 0x71, 0x98, 0xbd,
  0x6d, 0x1e, 0xec, 0x3c, 0x1b, 0x8a, 0xe9, 0xbd, 0x00, 0xf8, 0x0a, 0xbe,
  0x40, 0x1d, 0xd3, 0x3b, 0x29, 0x27, 0x1c, 0x3e, 0x88, 0x2c, 0xbc, 0x3c,
  0x89, 0x06, 0x2d, 0xbd, 0x5e, 0x82, 0x89, 0x3e, 0xc0, 0x92, 0xaa, 0x3e,
  0x51, 0x6a, 0x4b, 0x3b, 0x3d, 0xbd, 0x60, 0x3d, 0x46, 0x69, 0x50, 0x3d,
  0x10, 0x42, 0xd5, 0xbc, 0x97, 0x72, 0x8f, 0xbe, 0x12, 0xe6, 0xd3, 0x3d,
  0x9e, 0x56, 0xdb, 0x3c, 0x8a, 0x41, 0x51, 0xbd, 0xce, 0xf3, 0xec, 0xbb,
  0x45, 0xa7, 0x20, 0xbe, 0x8a, 0x7a, 0x0c, 0xbc, 0x74, 0x92, 0xfb, 0x3c,
  0x1b, 0x35, 0xdc, 0xbd, 0x8b, 0x35, 0x22, 0xbe, 0x1d, 0xe4, 0x17, 0x3e,
  0xb2, 0xaf, 0x6c, 0x3e, 0x2c, 0xe7, 0x02, 0xbe, 0xeb, 0x0b, 0x0a, 0xbe,
  0xf3, 0x29, 0x6a, 0xbe, 0x11, 0xed, 0xb3, 0xbd, 0xfc, 0xc4, 0x3a, 0x3d,
  0xda, 0xb3, 0xc8, 0xbd, 0xac, 0x4a, 0x97, 0xbe, 0xb0, 0x87, 0x2b, 0xbe,
  0xff, 0x33, 0xcb, 0x3d, 0xc9, 0x6f, 0x04, 0xbe, 0x03, 0x31, 0x9c, 0xbd,
  0x85, 0xe0, 0xf1, 0x3d, 0x8e, 0xf3, 0x50, 0xbd, 0xa9, 0xd9, 0x26, 0xbd,
  0xea, 0x64, 0xea, 0x3d, 0x78, 0xb2, 0xff, 0x3d, 0x67, 0xfd, 0x99, 0xbe,
  0x0b, 0x69, 0xcb, 0xbd, 0xfe, 0xbd, 0xab, 0xbd, 0xac, 0xca, 0xab, 0xbe,
  0x18, 0x72, 0x63, 0xbe, 0x7c, 0x63, 0x7a, 0x3d, 0x0c, 0x50, 0x83, 0xbe,
  0xed, 0x93, 0x15, 0xbe, 0x19, 0xb2, 0xb2, 0xbc, 0x1e, 0x32, 0x78, 0xbd,
  0x2d, 0x23, 0x31, 0x3d, 0x8f, 0x57, 0x89, 0x3d, 0x0c, 0xb7, 0x94, 0x3d,
  0x8f, 0x01, 0x42, 0x3c, 0xa4, 0xfe, 0xbc, 0x3d, 0x0e, 0x60, 0x37, 0x3e,
  0x41, 0x54, 0x1b, 0x3c, 0xec, 0x43, 0xae, 0xbd, 0x47, 0x71, 0x85, 0xbe,
  0x99, 0x28, 0x99, 0xbe, 0xf2, 0x83, 0xdc, 0xbd, 0x6f, 0xc1, 0x9e, 0xbc,
  0xc3, 0xa4, 0xb4, 0xbd, 0x18, 0x23, 0x87, 0x3e, 0x88, 0x81, 0xab, 0x3d,
  0x56, 0xfe, 0x96, 0xbd, 0x2f, 0xbd, 0x96, 0x3d, 0x32, 0xff, 0xc2, 0xbe,
  0x4c, 0x5f, 0xec, 0xbd, 0x8c, 0x05, 0x9b, 0x3e, 0x55, 0xce, 0x0e, 0xbf,
  0x41, 0xbe, 0x84, 0x3e, 0xa5, 0x86, 0x1f, 0x3e, 0x73, 0x4c, 0xc5, 0x3d,
  0xe6, 0x72, 0x6b, 0x3a, 0xec, 0xd2, 0x3f, 0xbb, 0x7a, 0xa8, 0x5d, 0x3e,
  0x33, 0x24, 0x46, 0xbf, 0x74, 0x61, 0xb2, 0xbd, 0xf4, 0xc5, 0x94, 0x3e,
  0x0b, 0x40, 0xca, 0xbe, 0x8f, 0x0e, 0xb0, 0x3e, 0x6b, 0x65, 0x88, 0xbe,
  0x8d, 0xb4, 0x06, 0xbe, 0xd8, 0x9c, 0x3e, 0xbf, 0x9f, 0x47, 0xa5, 0x3d,
  0xee, 0xa4, 0xa2, 0xbe, 0x3f, 0xed, 0xcd, 0x3e, 0x71, 0x59, 0x14, 0x3e,
  0x30, 0x45, 0x81, 0x3d, 0x7a, 0xfc, 0x1f, 0xbd, 0x41, 0x47, 0x7b, 0xbe,
  0xd0, 0x4a, 0xfd, 0x3c, 0x9b, 0x51, 0x86, 0x3e, 0x88, 0x30, 0x3d, 0xbe,
  0xf5, 0xe7, 0x07, 0x3e, 0xf2, 0x53, 0x10, 0xbf, 0xdb, 0x39, 0x7b, 0xbf,
  0x6c, 0xd0, 0x8e, 0x3c, 0x97, 0x77, 0x72, 0xbd, 0x68, 0xf2, 0x93, 0xbf,
  0xd4, 0x77, 0x7b, 0xbd, 0x37, 0xf3, 0xdc, 0xbd, 0x1e, 0x67, 0xda, 0xbe,
  0xb8, 0xb5, 0x63, 0xbe, 0xba, 0x70, 0xd3, 0xbe, 0xe4, 0xd7, 0x14, 0xbd,
  0x4f, 0x55, 0x6d, 0xbe, 0xeb, 0x30, 0xdf, 0x3c, 0x4d, 0x28, 0xe6, 0x3e,
  0xee, 0x2f, 0x1e, 0xbd, 0x9f, 0xd6, 0x61, 0xbe, 0x66, 0xa3, 0x3b, 0xbf,
  0xe8, 0xdf, 0x8e, 0xbf, 0xe3, 0x23, 0x3e, 0xbc, 0xb0, 0xe3, 0xbf, 0xbd,
  0x1f, 0x8f, 0x8a, 0xbf, 0xfb, 0xc7, 0x3a, 0xbe, 0x60, 0x91, 0x2d, 0xbe,
  0xaf, 0x8b, 0xa6, 0xbe, 0xbb, 0xa0, 0x82, 0xbe, 0x6c, 0xad, 0x21, 0xbf,
  0xfb, 0xf2, 0x7b, 0xbd, 0x5c, 0x7b, 0xad, 0xbe, 0xf0, 0xd9, 0xa1, 0x3c,
  0xad, 0xfb, 0x10, 0xbf, 0x80, 0x1a, 0x3d, 0xbf, 0x04, 0x89, 0x20, 0xbf,
  0xb7, 0x0c, 0x31, 0x3e, 0xaa, 0xc2, 0x66, 0xbf, 0xc3, 0x28, 0x33, 0xbe,
  0xbb, 0x27, 0x37, 0xbe, 0xb6, 0x0b, 0x10, 0xbf, 0x14, 0x05, 0xe4, 0xbc,
  0x8f, 0xfd, 0xa3, 0x3c, 0xfa, 0xe1, 0x29, 0xbe, 0x13, 0xa2, 0x19, 0x3d,
  0x01, 0x90, 0x9f, 0xbe, 0x5b, 0x9e, 0x3a, 0xbd, 0xcf, 0x6e, 0xed, 0x3c,
  0xef, 0xb2, 0xe5, 0xbd, 0x3f, 0x4d, 0xe5, 0xbe, 0x03, 0xb5, 0x88, 0xbd,
  0xf3, 0x4c, 0x6d, 0xbf, 0xae, 0x25, 0xc1, 0xbc, 0x62, 0x70, 0x9e, 0xbd,
  0x69, 0xa9, 0x32, 0xbe, 0x97, 0x4b, 0x39, 0xbe, 0x20, 0x7c, 0xad, 0x3c,
  0x81, 0x31, 0x09, 0x3e, 0x68, 0x33, 0x86, 0xbc, 0x15, 0x44, 0xac, 0x3e,
  0x5f, 0x4e, 0xe1, 0x3d, 0xd4, 0x63, 0x29, 0x3e, 0x28, 0x26, 0x55, 0xbd,
  0xd7, 0xaa, 0xa8, 0x3d, 0x3e, 0xb2, 0xdf, 0x3a, 0x13, 0x71, 0x18, 0xbc,
  0x56, 0xfd, 0x07, 0xbd, 0xe9, 0x43, 0xaa, 0xbc, 0xbe, 0xf8, 0x14, 0xbe,
  0x3f, 0xe6, 0x51, 0x3e, 0x8e, 0x0d, 0x80, 0xbe, 0xb8, 0xdc, 0x10, 0xbe,
  0x15, 0xd1, 0x8d, 0x3d, 0xf1, 0xa1, 0xf5, 0x3d, 0x77, 0x96, 0x8b, 0xbe,
  0xfa, 0xd1, 0xca, 0x3d, 0x12, 0xca, 0xec, 0x3d, 0x18, 0x7d, 0xc7, 0x3c,
  0x8b, 0x69, 0x31, 0x3d, 0x42, 0xe3, 0x11, 0x3e, 0x42, 0x28, 0x22, 0x3d,
  0x8f, 0x2b, 0x31, 0xbd, 0xcc, 0x08, 0x68, 0xbd, 0xd0, 0x49, 0x4b, 0x3d,
  0xe2, 0x32, 0xa3, 0xbe, 0x5e, 0xd2, 0x55, 0x3d, 0x45, 0xab, 0x84, 0xbd,
  0x8c, 0xac, 0xcd, 0xbc, 0x3e, 0x31, 0x8d, 0x3d, 0xae, 0xe0, 0xc4, 0x3c,
  0x78, 0x42, 0x9f, 0xbd, 0x78, 0xc2, 0x9a, 0xbe, 0x4d, 0xa2, 0x56, 0x3d,
  0x91, 0x0f, 0xef, 0x3d, 0x02, 0x3f, 0x6c, 0xbb, 0x31, 0x61, 0xe9, 0xbe,
  0xa7, 0x93, 0x22, 0xbf, 0xf2, 0x07, 0x31, 0xbb, 0xb6, 0xdb, 0xdf, 0x3d,
  0xba, 0x04, 0x11, 0xbe, 0x8a, 0x31, 0xab, 0x3c, 0x71, 0x7d, 0x77, 0xbe,
  0x2b, 0xeb, 0x90, 0x3e, 0x4b, 0x1f, 0x1a, 0xbe, 0x2f, 0xd9, 0xdf, 0xbe,
  0x9f, 0xc1, 0x42, 0xbe, 0xad, 0x00, 0xe9, 0xbd, 0x74, 0x9d, 0xb8, 0xbe,
  0xf6, 0xec, 0x1d, 0xbd, 0x82, 0x17, 0x01, 0x3e, 0xc4, 0x56, 0x6e, 0xbc,
  0xa5, 0x0f, 0x05, 0xbf, 0x79, 0xbc, 0xc0, 0xbe, 0x3b, 0x4a, 0x8a, 0xbe,
  0x8d, 0x2e, 0x15, 0x3e, 0xf0, 0x19, 0x23, 0xbe, 0x36, 0x9c, 0x1f, 0xbe,
  0xe7, 0x72, 0xca, 0xbe, 0x48, 0xed, 0x45, 0x3e, 0x60, 0x1c, 0x69, 0xbe,
  0x3f, 0xe8, 0x2e, 0x3e, 0xa8, 0x95, 0x13, 0xbe, 0x30, 0x0a, 0x79, 0x3d,
  0x84, 0x88, 0x5c, 0xbd, 0xa2, 0xa4, 0xa8, 0x3c, 0x35, 0xe5, 0xac, 0x3d,
  0x06, 0x63, 0x8d, 0xbc, 0x03, 0xb4, 0xd4, 0xbe, 0x60, 0x9b, 0x91, 0xbb,
  0xa5, 0xf1, 0xde, 0xbe, 0x19, 0xb6, 0xa1, 0x3d, 0xfb, 0x75, 0xb3, 0x3e,
  0x8e, 0x56, 0xe4, 0xbe, 0x42, 0x45, 0x1e, 0xbe, 0xf6, 0x53, 0xa4, 0x3e,
  0x2d, 0xe3, 0x78, 0xbd, 0x60, 0x87, 0x31, 0x3e, 0xe6, 0xd4, 0x56, 0x3d,
  0x7e, 0x8c, 0x5d, 0xbd, 0xe9, 0xe8, 0xc6, 0xbd, 0xe4, 0xac, 0x2b, 0x3d,
  0x6e, 0x91, 0x93, 0x3e, 0x0f, 0x34, 0x09, 0x3c, 0xc0, 0x0c, 0xb3, 0xbe,
  0xd7, 0x58, 0x25, 0x3e, 0x3f, 0xd3, 0x01, 0x3e, 0x02, 0x09, 0x16, 0x3e,
  0x7b, 0xd1, 0x9c, 0x3e, 0x69, 0x0f, 0x83, 0xbe, 0x60, 0x38, 0x5b, 0xbe,
  0x72, 0x37, 0x98, 0x3e, 0xad, 0x7f, 0x25, 0x3d, 0x80, 0x0e, 0xe0, 0x3d,
  0x6f, 0x81, 0x98, 0x3d, 0x8c, 0x81, 0x0b, 0x3c, 0x20, 0x57, 0x02, 0x3d,
  0x0d, 0x23, 0x6c, 0x3d, 0xdc, 0x2d, 0x9f, 0x3e, 0xfa, 0x59, 0xaa, 0x3c,
  0x7a, 0x48, 0x11, 0xbf, 0x80, 0x8c, 0xb7, 0x3d, 0xc1, 0x7f, 0x66, 0xbe,
  0x3b, 0xa4, 0x07, 0x3e, 0x30, 0x75, 0x2d, 0x3e, 0x33, 0x9f, 0x08, 0xbe,
  0x2a, 0x41, 0xdc, 0xbe, 0x61, 0x47, 0x99, 0x3e, 0x94, 0x2e, 0x4e, 0x3c,
  0x8e, 0xdb, 0xd4, 0x3d, 0x8a, 0x48, 0xa7, 0xbd, 0xa1, 0x61, 0x67, 0xbe,
  0x39, 0x6e, 0xcc, 0xbd, 0x70, 0xbd, 0x10, 0x3b, 0x52, 0x31, 0x98, 0xbc,
  0x7f, 0x03, 0x18, 0xbd, 0x0b, 0x96, 0x4e, 0xbe, 0x23, 0x6b, 0x83, 0xbe,
  0xc3, 0x35, 0x17, 0xbd, 0x94, 0x89, 0x2c, 0x3e, 0x0f, 0x3a, 0xf9, 0x3d,
  0x4c, 0xa4, 0x14, 0xbe, 0x13, 0x3a, 0x06, 0xbf, 0x95, 0x72, 0x8e, 0x3e,
  0x48, 0x3a, 0x01, 0x3e, 0x21, 0x5e, 0xa5, 0x3d, 0xaf, 0x9f, 0xd1, 0xbb,
  0x5b, 0x35, 0x79, 0xbd, 0x98, 0x13, 0x81, 0xbd, 0x26, 0x93, 0xa0, 0x3d,
  0xea, 0xb4, 0xfa, 0xbc, 0x47, 0x12, 0xd9, 0xbc, 0xdd, 0xf5, 0x43, 0xbe,
  0xcc, 0x5d, 0x42, 0xbc, 0x63, 0x3c, 0x5c, 0x3e, 0x30, 0xf2, 0xe5, 0x3d,
  0x65, 0xf8, 0xb1, 0x3c, 0x59, 0x48, 0x48, 0xbe, 0xc6, 0xf5, 0x9f, 0x3a,
  0x0f, 0x6a, 0xa5, 0x3c, 0xd6, 0x1d, 0xa6, 0x3d, 0x5e, 0x42, 0x6c, 0xbe,
  0x67, 0x62, 0xfe, 0x3d, 0x36, 0x68, 0xcb, 0x3e, 0x9e, 0xb1, 0x72, 0xbe,
  0xaa, 0xe6, 0xe6, 0xbd, 0xa1, 0xce, 0x73, 0x3c, 0x4a, 0xd6, 0x08, 0xbc,
  0x7b, 0xc5, 0x98, 0x3d, 0x0c, 0xa6, 0x50, 0x3e, 0x70, 0x88, 0x14, 0xbe,
  0xb0, 0x88, 0x03, 0xbc, 0x90, 0xfa, 0xe7, 0xbe, 0x87, 0xb0, 0x39, 0xbd,
  0x11, 0x54, 0xd6, 0xbc, 0xae, 0x60, 0x53, 0xbe, 0xc0, 0x33, 0xe0, 0x3d,
  0x1e, 0x16, 0x42, 0xbe, 0xf7, 0x5c, 0xb0, 0x3d, 0x88, 0xa5, 0x9b, 0x3d,
  0xbc, 0xb1, 0x15, 0xbe, 0xa0, 0x5b, 0x57, 0xbe, 0x93, 0x14, 0xb0, 0xbd,
  0xa9, 0x52, 0x32, 0xbe, 0x54, 0xe8, 0x02, 0x3e, 0x6c, 0x1e, 0x4d, 0x3e,
  0xe7, 0x5f, 0x86, 0xbc, 0x60, 0x14, 0x4d, 0x3d, 0x2b, 0xde, 0xbd, 0xbd,
  0x2f, 0xde, 0x10, 0xbe, 0xf5, 0xf7, 0x43, 0xbe, 0xa0, 0x4e, 0x8c, 0xbe,
  0xfe, 0x3b, 0x4a, 0x3e, 0x38, 0xb8, 0x7a, 0xbd, 0xfe, 0x6b, 0xaa, 0x3e,
  0xb7, 0x71, 0x6a, 0x3e, 0xaa, 0xf7, 0xfc, 0xbd, 0x7d, 0xaf, 0x58, 0x3c,
  0x7a, 0xad, 0x85, 0xbc, 0xcb, 0x80, 0x34, 0xbe, 0x72, 0x7e, 0x96, 0x3d,
  0x2c, 0x8c, 0xf7, 0x3d, 0xe8, 0xa0, 0x83, 0x3c, 0x04, 0x32, 0x86, 0x3e,
  0xcc, 0xfa, 0xb4, 0x3d, 0xeb, 0x69, 0xac, 0x3d, 0x4e, 0x3f, 0x05, 0x3d,
  0x10, 0x68, 0x9a, 0xbd, 0x35, 0x82, 0xa5, 0xbe, 0xe2, 0x1e, 0xcd, 0xbd,
  0x01, 0x40, 0x26, 0x3e, 0xc8, 0xcf, 0x36, 0x3e, 0x13, 0x75, 0x1f, 0x3d,
  0x0b, 0x2c, 0x48, 0x3e, 0x92, 0xa2, 0xa1, 0x3d, 0x02, 0x58, 0x9a, 0xbe,
  0x90, 0x4f, 0x2f, 0x3e, 0x8b, 0xa1, 0x6e, 0x3d, 0xf5, 0x51, 0x22, 0x3c,
  0x5a, 0x06, 0xd9, 0x3d, 0xa0, 0x4e, 0xdf, 0xbc, 0xf8, 0x79, 0xb2, 0x3d,
  0x04, 0xe0, 0x2e, 0xbd, 0xaf, 0x1b, 0x78, 0x3d, 0x71, 0x63, 0x01, 0xbe,
  0xd1, 0xd4, 0x47, 0x3d, 0x88, 0x73, 0x17, 0x3e, 0x06, 0xa1, 0x71, 0x3e,
  0x3c, 0x65, 0xd3, 0x3d, 0x84, 0xa0, 0x5d, 0xbe, 0xc0, 0xcb, 0x2b, 0x3d,
  0x74, 0x56, 0x7f, 0xbe, 0x99, 0x20, 0x24, 0x3e, 0x4b, 0x1e, 0x1f, 0xbd,
  0x64, 0x06, 0xdd, 0xbd, 0x4b, 0x45, 0x3b, 0x3e, 0xa4, 0xd2, 0x88, 0xbe,
  0x32, 0x08, 0xfd, 0x3b, 0xfb, 0xc7, 0x1a, 0xbe, 0x43, 0xf5, 0xb2, 0xbd,
  0xc6, 0x7f, 0xff, 0x3d, 0x38, 0x64, 0xec, 0xbd, 0x20, 0xd6, 0xf0, 0x3d,
  0x17, 0x13, 0xdb, 0x3d, 0x30, 0x33, 0x62, 0xbe, 0xed, 0xf9, 0x68, 0xbe,
  0xd8, 0xb5, 0x48, 0x3d, 0x40, 0xf1, 0xa1, 0xbe, 0xef, 0xb7, 0xcd, 0x3d,
  0xda, 0xf0, 0x53, 0x3d, 0xd0, 0x64, 0x8f, 0x3d, 0x75, 0xe7, 0xca, 0x3c,
  0x51, 0x63, 0xa5, 0xbd, 0xb8, 0x9a, 0xb8, 0xbd, 0xeb, 0xa4, 0x9c, 0xbc,
  0x47, 0x9a, 0x03, 0xbe, 0x2c, 0x37, 0x5d, 0x3e, 0x9b, 0xf9, 0x68, 0xbe,
  0x0b, 0x0a, 0x41, 0xbc, 0x1b, 0x12, 0xc1, 0x3d, 0x8f, 0xd0, 0x29, 0xbd,
  0x9a, 0x3b, 0x8d, 0xbe, 0xcd, 0x0c, 0xd4, 0xbd, 0x76, 0xa1, 0xd6, 0xbe,
  0x51, 0xd7, 0x59, 0x3d, 0xaa, 0x4d, 0x8a, 0xbd, 0xe5, 0xe2, 0xda, 0xbc,
  0x85, 0x7e, 0xe2, 0x3d, 0xcb, 0x42, 0xcf, 0xbd, 0x33, 0x31, 0x55, 0xbe,
  0x8c, 0x9b, 0xa6, 0xbd, 0x05, 0x89, 0xfa, 0xbd, 0x07, 0x06, 0x31, 0xbe,
  0x78, 0x36, 0x6f, 0xbe, 0x2a, 0xe3, 0xec, 0x3d, 0x33, 0x50, 0x14, 0x3e,
  0xe0, 0xe0, 0x14, 0xbe, 0x60, 0x3d, 0x6c, 0xbd, 0x08, 0xc4, 0x3a, 0xbe,
  0xbf, 0x10, 0x88, 0xbd, 0xa6, 0x3b, 0x0e, 0xbe, 0xe8, 0x3a, 0x1f, 0x3d,
  0xbb, 0xb3, 0xb4, 0xbd, 0xd1, 0x5c, 0xca, 0x3c, 0x33, 0x51, 0x33, 0xbe,
  0x03, 0x40, 0x1a, 0xbe, 0xfb, 0x1a, 0x7f, 0xbe, 0x74, 0x1c, 0x01, 0x3d,
  0x3f, 0x32, 0x39, 0x3e, 0x18, 0xa3, 0xa1, 0xbd, 0xed, 0x71, 0x2b, 0x3e,
  0x1e, 0x2a, 0x00, 0xbe, 0xc4, 0x83, 0x3c, 0x3e, 0xcd, 0x34, 0x7d, 0xbe,
  0xb4, 0xda, 0x06, 0xbe, 0x65, 0x6b, 0x91, 0xbe, 0x54, 0x4e, 0x2f, 0xbe,
  0x38, 0xf8, 0x3e, 0xbe, 0x80, 0xe7, 0x0b, 0x3c, 0x98, 0x8f, 0x1b, 0xbd,
  0xc5, 0xb9, 0xa9, 0xbd, 0xe7, 0x18, 0x54, 0xbc, 0x77, 0x49, 0x6a, 0xbd,
  0xcc, 0x3e, 0x6d, 0xbe, 0x0c, 0x38, 0x03, 0x3e, 0x2c, 0xe1, 0x55, 0x3b,
  0xae, 0x77, 0x3f, 0x3d, 0x33, 0xbc, 0xd4, 0x3c, 0xf4, 0x18, 0x5a, 0xbe,
  0x9d, 0xa8, 0x7d, 0xbe, 0x9c, 0xfa, 0xe9, 0xbd, 0x92, 0x89, 0x94, 0xbe,
  0xb9, 0x73, 0xa3, 0x3d, 0x9f, 0x15, 0x80, 0xbe, 0x33, 0x47, 0x85, 0x3d,
  0x5b, 0x20, 0x02, 0xbe, 0x8e, 0x0c, 0x17, 0xbe, 0xbc, 0xa8, 0x19, 0xbe,
  0x67, 0x61, 0x45, 0xbe, 0xeb, 0xe3, 0x11, 0x3e, 0x38, 0xf1, 0x00, 0x3d,
  0x58, 0x43, 0xa8, 0x3d, 0x62, 0x77, 0x77, 0xbe, 0xe9, 0x68, 0xbb, 0xbd,
  0x06, 0xa7, 0x0f, 0x3e, 0xea, 0xcc, 0x14, 0xbe, 0x34, 0x72, 0x16, 0x3d,
  0x51, 0x79, 0x20, 0xbe, 0xe5, 0x9b, 0x20, 0xbe, 0x5f, 0x18, 0xb7, 0x3b,
  0x08, 0x42, 0x59, 0xbd, 0x29, 0xd3, 0xda, 0x3d, 0xc3, 0x27, 0xa4, 0x3d,
  0xc5, 0x46, 0x99, 0xbd, 0x98, 0x06, 0x48, 0xbd, 0x24, 0xf7, 0xd4, 0x3c,
  0xe5, 0xbe, 0x0f, 0x3e, 0x2a, 0x3c, 0x08, 0xbc, 0xaf, 0x1a, 0x66, 0xbe,
  0x78, 0x63, 0x9d, 0x3d, 0x32, 0xed, 0xd9, 0x3d, 0xf3, 0x70, 0x50, 0xbe,
  0x2d, 0xa1, 0xc6, 0xbc, 0x9d, 0x90, 0x79, 0xbe, 0x40, 0x9c, 0x51, 0x3d,
  0x98, 0xb4, 0x5e, 0xbe, 0xbb, 0x5f, 0x98, 0xbd, 0x0c, 0xff, 0xe5, 0xbd,
  0x0d, 0x1d, 0x02, 0xbd, 0x95, 0xc3, 0xb0, 0xba, 0xbe, 0x96, 0xb6, 0x3d,
  0x78, 0xf2, 0xab, 0x3c, 0x5c, 0xd1, 0x35, 0x3e, 0xc2, 0xa7, 0xc8, 0xbd,
  0xc3, 0xba, 0x0c, 0xbe, 0x33, 0xa6, 0x46, 0xbd, 0x6e, 0x2d, 0x12, 0x3e,
  0xc8, 0xfa, 0xcb, 0xbd, 0x2a, 0x8a, 0xb0, 0x3c, 0x21, 0xed, 0x8c, 0xbe,
  0x01, 0x03, 0x69, 0xbe, 0x9c, 0xe3, 0x97, 0xbd, 0x6a, 0xc5, 0x75, 0xbe,
  0x26, 0xb2, 0x3e, 0xbd, 0xce, 0xdc, 0xe6, 0x3c, 0xd2, 0xed, 0xde, 0xbd,
  0x42, 0x09, 0xde, 0xbd, 0x85, 0x17, 0x58, 0x3d, 0x05, 0x88, 0x25, 0xbe,
  0x35, 0x7b, 0x7f, 0xbe, 0x39, 0x63, 0x08, 0xbe, 0x90, 0x9b, 0x91, 0xbd,
  0x4f, 0xdd, 0xf1, 0x3d, 0xc5, 0x8f, 0xe4, 0xbd, 0x6d, 0xd5, 0x1c, 0xbe,
  0xd8, 0x4c, 0x2a, 0xbe, 0x39, 0x98, 0x15, 0x3c, 0xc1, 0xc7, 0x80, 0x3d,
  0xc5, 0x9a, 0x00, 0x3e, 0xfc, 0xcc, 0x33, 0xbd, 0x92, 0x23, 0xe4, 0xbd,
  0x0e, 0xd6, 0xc8, 0xbd, 0x36, 0xa6, 0x35, 0xbd, 0x76, 0x1b, 0xe0, 0xbd,
  0xbe, 0x22, 0x63, 0xbb, 0x1b, 0xa2, 0x72, 0x3d, 0xdc, 0x2b, 0xad, 0x3e,
  0xf9, 0x50, 0xda, 0xbe, 0x54, 0x56, 0xf5, 0x3d, 0x75, 0x50, 0x94, 0x3d,
  0x2f, 0xd1, 0x06, 0x3e, 0x00, 0x10, 0x10, 0x3d, 0x43, 0xb5, 0x79, 0xbd,
  0xa2, 0x32, 0xc4, 0x3d, 0x3f, 0x39, 0xb8, 0x3c, 0x98, 0x9b, 0x21, 0x3d,
  0x00, 0xa0, 0xe3, 0x3d, 0x36, 0x01, 0x41, 0xbd, 0x4a, 0x9a, 0x2e, 0x3e,
  0x97, 0x26, 0x0e, 0x3d, 0xc6, 0x77, 0x17, 0xbd, 0xdd, 0x1d, 0x66, 0x3d,
  0x19, 0xd0, 0x2d, 0xbe, 0x48, 0xed, 0x88, 0xbe, 0x4c, 0xf0, 0xa7, 0x3e,
  0xef, 0x69, 0xd0, 0x3d, 0x56, 0x3e, 0xca, 0x3d, 0xc8, 0xff, 0x79, 0xbc,
  0xf0, 0xa8, 0x8b, 0xbe, 0x4b, 0xf4, 0x6f, 0xbd, 0xfd, 0xeb, 0xe4, 0x3d,
  0x68, 0xc9, 0xcc, 0xba, 0x51, 0x5e, 0x30, 0x3e, 0x95, 0xfa, 0x39, 0xbd,
  0x1c, 0x84, 0x30, 0xbe, 0xfa, 0x6f, 0x8b, 0x3d, 0x70, 0xe3, 0x56, 0xbd,
  0x16, 0x65, 0x28, 0x3d, 0xc5, 0xe4, 0x51, 0xbe, 0x42, 0xfb, 0xa9, 0x3c,
  0x2e, 0xa5, 0xd1, 0xbc, 0x63, 0xf1, 0x30, 0x3b, 0x08, 0x39, 0x3f, 0xbd,
  0xdf, 0x46, 0x93, 0xbb, 0x51, 0xb1, 0xaf, 0xbe, 0x4d, 0x2b, 0x23, 0xbd,
  0x59, 0x59, 0xb7, 0x3d, 0xc1, 0x71, 0xd9, 0x3c, 0x18, 0x48, 0x87, 0xbd,
  0x12, 0x1a, 0x47, 0xbd, 0x29, 0x7b, 0xc2, 0xbc, 0xb7, 0x65, 0xe0, 0x3d,
  0xf2, 0xfd, 0xb5, 0xbc, 0x38, 0xb5, 0xf3, 0x3c, 0x9d, 0xe2, 0x80, 0xbc,
  0xf2, 0x39, 0x6e, 0xbe, 0xb4, 0x35, 0x50, 0xbc, 0x0f, 0xca, 0x47, 0xbd,
  0xd3, 0x8a, 0xc8, 0xbd, 0x30, 0xf8, 0x15, 0xbd, 0xe2, 0xca, 0xfa, 0xb8,
  0x95, 0x7e, 0x57, 0xbc, 0xba, 0x07, 0x4e, 0xbb, 0x7e, 0x02, 0x44, 0xbd,
  0x56, 0x32, 0x9a, 0xbd, 0x40, 0x97, 0xac, 0xbe, 0x94, 0xd2, 0x68, 0xbe,
  0x23, 0x1d, 0xa0, 0x3d, 0xbb, 0xdf, 0xe4, 0xbb, 0xc6, 0xe4, 0x35, 0x3b,
  0x14, 0x91, 0xf4, 0xbd, 0x21, 0x27, 0x10, 0xbe, 0xfe, 0x65, 0x8c, 0xbe,
  0x27, 0x2a, 0xdb, 0xbd, 0x0f, 0x57, 0xec, 0x3c, 0xd0, 0x80, 0x22, 0x3c,
  0xc7, 0xbc, 0x55, 0x3d, 0x32, 0x7e, 0x1a, 0xbd, 0x5d, 0xb1, 0x82, 0x3c,
  0x23, 0x2b, 0x17, 0x3d, 0x46, 0xca, 0x2a, 0xbe, 0x7b, 0x90, 0x5f, 0xbe,
  0x37, 0xb0, 0x4c, 0xbf, 0x67, 0xee, 0x9b, 0x3d, 0xd9, 0xbc, 0xd0, 0x3c,
  0x62, 0xab, 0xcf, 0xbe, 0xe3, 0x43, 0xac, 0xbd, 0x21, 0x60, 0x36, 0xbe,
  0x22, 0x85, 0x09, 0xbe, 0x32, 0x13, 0x55, 0xbe, 0x01, 0x16, 0x7b, 0xbc,
  0x88, 0xd2, 0xef, 0x3b, 0x92, 0x04, 0xb0, 0x3b, 0x73, 0xc0, 0x01, 0xbd,
  0x01, 0x50, 0xd9, 0x3d, 0xa8, 0x12, 0x33, 0xbe, 0xb6, 0xf1, 0xd4, 0xbd,
  0x0b, 0xe3, 0x13, 0x3c, 0x5a, 0xef, 0x4b, 0xbf, 0x02, 0x6f, 0xa2, 0xbd,
  0xcd, 0xb6, 0x04, 0x3d, 0xdf, 0x87, 0x44, 0xbd, 0xdf, 0xeb, 0xdc, 0xbd,
  0x1c, 0x34, 0x0b, 0xbe, 0xbf, 0xe8, 0xbe, 0xbe, 0x7b, 0x26, 0xbb, 0xbe,
  0x54, 0x37, 0x84, 0xbc, 0xa9, 0xda, 0xd5, 0x3b, 0x1e, 0x03, 0x01, 0xbc,
  0x2c, 0xab, 0xcc, 0xbc, 0x67, 0xec, 0x76, 0xbe, 0xbb, 0x17, 0x0e, 0xbe,
  0xb6, 0xb6, 0xf1, 0x3c, 0x0a, 0xe5, 0x5b, 0xbf, 0x09, 0x9c, 0xba, 0xbd,
  0xe2, 0x85, 0x4e, 0x3d, 0x6e, 0x99, 0xe7, 0xbd, 0x8f, 0xe3, 0x1e, 0xbd,
  0x4f, 0x97, 0xcb, 0xbe, 0xb8, 0x56, 0xb3, 0xbd, 0xd1, 0xc3, 0xeb, 0x3c,
  0xcb, 0x68, 0x9e, 0xbd, 0x41, 0x0f, 0x1c, 0xbe, 0xb0, 0xdb, 0xfd, 0xbe,
  0xd4, 0x84, 0x83, 0x3d, 0x98, 0x84, 0x7f, 0xbe, 0xe8, 0x9f, 0x94, 0x3e,
  0xed, 0xe7, 0x80, 0xbe, 0xec, 0xed, 0xf4, 0x3d, 0xd8, 0x1d, 0x6d, 0x3e,
  0x16, 0x8d, 0x53, 0x3e, 0x70, 0x68, 0x87, 0xbe, 0x6e, 0x12, 0x1f, 0xbe,
  0x31, 0x7d, 0xb1, 0x3c, 0xbd, 0x72, 0x7c, 0x3d, 0x31, 0x14, 0x3e, 0x3d,
  0x33, 0xe9, 0x98, 0x3d, 0x96, 0xe7, 0x13, 0x3e, 0xe3, 0xbd, 0x5d, 0x3e,
  0x28, 0xb2, 0x67, 0xbe, 0x85, 0x45, 0xa7, 0x3d, 0xab, 0xbe, 0x05, 0xba,
  0xd6, 0x9b, 0xa1, 0x3d, 0x74, 0x5b, 0x99, 0xbe, 0x2e, 0xdb, 0x4a, 0x3e,
  0x3d, 0xd4, 0x0b, 0x3f, 0x60, 0x54, 0xab, 0x3d, 0x81, 0x6f, 0x61, 0xbe,
  0x92, 0xbc, 0xf8, 0x3c, 0x80, 0xbb, 0x5e, 0xbd, 0x1c, 0xf0, 0xb3, 0xbc,
  0x36, 0x66, 0x27, 0x3c, 0xaf, 0x67, 0xc2, 0x3c, 0x04, 0xd0, 0xa0, 0x3e,
  0xab, 0xc6, 0x2c, 0x3e, 0x04, 0x76, 0x3d, 0xbe, 0x45, 0x19, 0x64, 0x3d,
  0x8a, 0x6e, 0x6b, 0x3e, 0xce, 0xc4, 0x3e, 0x3d, 0x59, 0x25, 0x8d, 0xbe,
  0xa4, 0xbf, 0x46, 0x3e, 0x82, 0xea, 0xec, 0x3e, 0x77, 0xfe, 0x88, 0xbd,
  0x9e, 0xee, 0xf1, 0xbd, 0x9e, 0x47, 0x19, 0x3e, 0xd7, 0xcc, 0x4c, 0x3c,
  0x78, 0x83, 0x9d, 0xbd, 0x95, 0xf3, 0x62, 0x3d, 0xda, 0x0a, 0xda, 0x3b,
  0x5e, 0xe3, 0x8e, 0x3e, 0x16, 0x79, 0x40, 0x3d, 0x25, 0xe7, 0x81, 0xbd,
  0x31, 0x04, 0x22, 0x3e, 0x97, 0x5d, 0xfa, 0x3c, 0xad, 0xb5, 0x9f, 0x3b,
  0x62, 0x8c, 0x41, 0xbe, 0xac, 0x6f, 0x6e, 0x3e, 0x94, 0x24, 0xd2, 0x3e,
  0x4d, 0x19, 0x2b, 0xbe, 0x4a, 0x56, 0x76, 0x3e, 0xfe, 0x1f, 0x50, 0x3d,
  0xe7, 0xa4, 0x5a, 0x3d, 0xb4, 0x57, 0x3b, 0xbc, 0xe1, 0x7c, 0xb8, 0x3d,
  0x0e, 0x4a, 0x19, 0x3e, 0x93, 0x70, 0x7f, 0x3e, 0x05, 0x49, 0x05, 0x3e,
  0xaf, 0xfd, 0xa9, 0x3c, 0xd5, 0xed, 0xa7, 0x3c, 0x88, 0x24, 0x0b, 0x3e,
  0x0c, 0x04, 0x3e, 0x3e, 0x65, 0x08, 0x66, 0xbe, 0x95, 0xf2, 0xb2, 0x3e,
  0xae, 0x4e, 0x6c, 0x3e, 0x84, 0x68, 0x02, 0xbe, 0x9c, 0x5e, 0x9f, 0x3c,
  0xe9, 0x47, 0x5b, 0xbd, 0xb5, 0x78, 0x93, 0x3c, 0x19, 0xab, 0x19, 0xbe,
  0xef, 0x7b, 0xee, 0x3e, 0x7b, 0x6e, 0x55, 0xbe, 0x5e, 0x1a, 0xb0, 0x3d,
  0x15, 0xe4, 0x49, 0xbb, 0xea, 0x99, 0x48, 0x3c, 0x6d, 0xf5, 0xbf, 0xbc,
  0x28, 0x0f, 0xc5, 0x3d, 0x03, 0x21, 0x19, 0x3e, 0xcc, 0xc4, 0xf3, 0xbd,
  0x0f, 0x15, 0x22, 0x3d, 0x39, 0x94, 0xcf, 0x3e, 0xf2, 0x5b, 0x46, 0xbd,
  0x91, 0x47, 0xb0, 0x3b, 0x2a, 0x9e, 0xf2, 0x3c, 0xa1, 0xf9, 0x84, 0xbc,
  0x39, 0xa5, 0x03, 0xbe, 0x14, 0x20, 0xb6, 0x3e, 0x82, 0x8e, 0xed, 0xbd,
  0xf2, 0xa0, 0xed, 0xbd, 0xa5, 0x78, 0x7b, 0xbd, 0x8b, 0x58, 0xe6, 0x3c,
  0xc3, 0xe1, 0xba, 0x3d, 0x10, 0x7c, 0x11, 0x3e, 0x9f, 0xba, 0x9b, 0xbe,
  0x7a, 0x16, 0x6a, 0xbe, 0xfb, 0xd8, 0xa0, 0xbe, 0x9a, 0xf6, 0x8c, 0x3e,
  0x97, 0x75, 0x07, 0x3e, 0xdf, 0x72, 0xc1, 0xbe, 0xda, 0x8e, 0x34, 0x3d,
  0x59, 0xff, 0x5f, 0xbd, 0x22, 0x3f, 0x42, 0x3d, 0x00, 0x20, 0x49, 0xbe,
  0xab, 0x19, 0xc5, 0xbe, 0xf6, 0x60, 0xed, 0xbc, 0x15, 0x21, 0xef, 0xbc,
  0x65, 0x95, 0x26, 0xbd, 0x6e, 0x6e, 0x07, 0xbf, 0x88, 0x7e, 0xde, 0xbe,
  0xbb, 0xfe, 0x1c, 0xbd, 0x5f, 0x6f, 0xa9, 0xbd, 0x92, 0x0e, 0xbe, 0xbc,
  0x85, 0xa5, 0x4d, 0x3c, 0xd9, 0x04, 0xbe, 0xbe, 0x4e, 0x27, 0xf0, 0x3e,
  0xd2, 0x1b, 0x2a, 0xbe, 0x2a, 0x68, 0x9f, 0x3c, 0x50, 0x28, 0x6d, 0xbd,
  0x03, 0x54, 0xac, 0x3d, 0x4b, 0xc5, 0x29, 0xbe, 0xcf, 0xdc, 0x17, 0xbd,
  0x39, 0x37, 0x77, 0x3c, 0x8f, 0x6c, 0x0f, 0x3b, 0xb2, 0xcf, 0x08, 0xbf,
  0xb7, 0x3d, 0x86, 0xbe, 0x2e, 0x3f, 0x9b, 0xbe, 0x97, 0xb0, 0x22, 0x3d,
  0xc3, 0xbd, 0x51, 0xbd, 0xa9, 0xb1, 0x34, 0xbe, 0xce, 0x80, 0x7e, 0xbe,
  0x3e, 0x98, 0x74, 0x3e, 0xff, 0x27, 0x63, 0xbd, 0x7c, 0x72, 0x0d, 0x3e,
  0x9e, 0x11, 0x2b, 0xbd, 0x60, 0x50, 0x97, 0xbd, 0xfc, 0x3a, 0x48, 0x3e,
  0x34, 0x44, 0xc8, 0xbd, 0x36, 0x4c, 0x9f, 0x3e, 0x6f, 0x11, 0xa8, 0x3b,
  0x42, 0xaa, 0xe5, 0xbe, 0x79, 0x3b, 0x36, 0xbe, 0xdb, 0xdb, 0xd6, 0xbd,
  0xcd, 0x3b, 0xf5, 0x3d, 0xf0, 0x41, 0xb0, 0x3e, 0xca, 0xe3, 0x8d, 0xbe,
  0x8c, 0xca, 0x89, 0xbe, 0xaf, 0x64, 0x6f, 0x3e, 0x42, 0x03, 0x8f, 0xbd,
  0xcf, 0xe0, 0x49, 0x3e, 0xa9, 0x3e, 0x8b, 0x3e, 0x54, 0xad, 0xbc, 0x3d,
  0xf0, 0x28, 0x10, 0xbe, 0x3d, 0x7a, 0x83, 0x3d, 0x76, 0xca, 0x71, 0x3e,
  0x5d, 0xff, 0x44, 0x3d, 0x5d, 0x2c, 0xf9, 0xbe, 0x28, 0xcc, 0x6e, 0xbe,
  0xdd, 0xc2, 0x82, 0x3c, 0x96, 0x58, 0x7b, 0x3e, 0x77, 0x9d, 0x8f, 0x3e,
  0x45, 0x4e, 0xd9, 0xbe, 0x55, 0x4a, 0xe3, 0xbc, 0x2e, 0x0f, 0xa5, 0x3d,
  0xbe, 0x2b, 0x0f, 0x3a, 0xe0, 0x31, 0x0c, 0x3d, 0xea, 0xa1, 0xa5, 0x3c,
  0xe3, 0xba, 0xf4, 0x3d, 0x5d, 0x0a, 0x23, 0x3e, 0xb3, 0x0c, 0x92, 0xbc,
  0x3b, 0x40, 0x3f, 0x3e, 0x66, 0x06, 0x04, 0xbd, 0x2f, 0x06, 0x17, 0xbf,
  0xf5, 0x15, 0x4b, 0xbe, 0x43, 0x08, 0x3f, 0xbe, 0x70, 0x52, 0x67, 0x3e,
  0xf1, 0xe4, 0x53, 0x3e, 0x68, 0x45, 0x5d, 0xbe, 0x90, 0x78, 0x4c, 0xbe,
  0x8d, 0xc1, 0x6c, 0x3e, 0xab, 0xbc, 0x41, 0xbe, 0x14, 0xaa, 0xa9, 0x3d,
  0x19, 0xd5, 0xb0, 0xbc, 0x70, 0x2e, 0x96, 0xbe, 0xcb, 0x82, 0xa4, 0xbd,
  0x7f, 0xb9, 0x00, 0xbe, 0xf9, 0x3e, 0x4c, 0xbe, 0xa0, 0x1e, 0x87, 0xbd,
  0xad, 0xc2, 0x8b, 0xbe, 0x8f, 0x47, 0xcd, 0xbe, 0x3b, 0xe4, 0x8f, 0xbd,
  0xa5, 0x50, 0x8b, 0x3d, 0xc7, 0x06, 0x06, 0x3e, 0x53, 0xb2, 0x1d, 0xbe,
  0x9b, 0x0c, 0x47, 0xbe, 0x12, 0x52, 0x6d, 0x3e, 0xa5, 0xb1, 0x5b, 0xbd,
  0xff, 0x81, 0x9c, 0x3d, 0xde, 0x7b, 0x9e, 0xbc, 0x8e, 0xb4, 0x92, 0x3d,
  0xb7, 0x83, 0x07, 0xbe, 0xc8, 0x55, 0x77, 0x3c, 0xc2, 0xfe, 0xa7, 0x3b,
  0x50, 0x01, 0x25, 0xbd, 0xdd, 0x50, 0xa5, 0xbd, 0xec, 0x9f, 0x8b, 0xbd,
  0x35, 0xec, 0x8d, 0x3d, 0xf6, 0x48, 0xb8, 0x3d, 0x08, 0x9f, 0xf6, 0xbb,
  0xe5, 0x61, 0x39, 0xbe, 0x4e, 0x67, 0xbd, 0xbd, 0xe2, 0x87, 0x84, 0x3d,
  0xb5, 0x9d, 0xe2, 0xbb, 0x33, 0x3e, 0x82, 0x3c, 0x17, 0x6e, 0x75, 0x3d,
  0xd0, 0xca, 0x47, 0xbe, 0x37, 0x5e, 0x6a, 0x3e, 0x90, 0x95, 0x17, 0xbe,
  0xb5, 0x69, 0x1c, 0x3e, 0x3d, 0x3a, 0x75, 0xbc, 0xbe, 0x08, 0x2f, 0x3e,
  0x6f, 0xb4, 0xcd, 0x3e, 0x1b, 0x1f, 0x9f, 0xbd, 0x4a, 0xef, 0x39, 0xbd,
  0x9d, 0x13, 0x8b, 0x3e, 0xb1, 0x6f, 0xe7, 0xbd, 0x93, 0xb0, 0x45, 0x3e,
  0x2a, 0x19, 0x41, 0xbe, 0x0d, 0xa0, 0x1c, 0xbe, 0x0c, 0x6d, 0xbc, 0x3d,
  0x12, 0x4e, 0x15, 0x3e, 0xe3, 0xfb, 0x78, 0x3e, 0x8d, 0x4c, 0x9d, 0x3e,
  0xe6, 0xdb, 0xe2, 0x3d, 0xcf, 0x14, 0x8a, 0x3e, 0x16, 0x46, 0x47, 0x3b,
  0xc9, 0x53, 0x8e, 0x3d, 0xb3, 0x72, 0x1f, 0xbe, 0x53, 0x72, 0xdb, 0x3d,
  0x79, 0x57, 0xf7, 0xbd, 0x28, 0xde, 0x9b, 0x3e, 0xd5, 0xeb, 0x88, 0x3d,
  0xc9, 0x70, 0x8d, 0x3d, 0xbb, 0xca, 0x4b, 0xbd, 0x96, 0xe1, 0xc6, 0x3d,
  0xf3, 0x78, 0x2a, 0xbf, 0xa6, 0x13, 0x0a, 0xbd, 0x42, 0xd4, 0xd4, 0x3d,
  0xf5, 0xf0, 0x55, 0xbe, 0x50, 0x8d, 0xd9, 0xbd, 0x96, 0x02, 0x25, 0xbe,
  0x0c, 0x87, 0xa1, 0xbc, 0x4a, 0xc4, 0x86, 0xbe, 0xd8, 0xd5, 0x9d, 0xbe,
  0x92, 0x03, 0x96, 0x3e, 0x1f, 0x06, 0xf6, 0xbd, 0xfa, 0x84, 0x38, 0xbe,
  0xa0, 0x7c, 0xa2, 0x3d, 0x6e, 0x78, 0x57, 0xbe, 0x9c, 0x72, 0x4a, 0xbd,
  0xc5, 0x7a, 0xd8, 0x3a, 0xa6, 0xce, 0xf6, 0xbe, 0x98, 0xbb, 0x94, 0xbe,
  0x73, 0x9c, 0x4d, 0x3e, 0x00, 0xc2, 0x01, 0xbf, 0xd5, 0x9e, 0x58, 0x3d,
  0x0a, 0x28, 0x33, 0xbf, 0xc8, 0x33, 0xaf, 0x3b, 0xf6, 0xb9, 0xb5, 0x3d,
  0x98, 0xd5, 0x01, 0xbf, 0x52, 0x61, 0xa4, 0xbe, 0xe4, 0xdd, 0xd8, 0xbe,
  0xaa, 0xb3, 0xe9, 0xbe, 0x97, 0x10, 0xf6, 0x3d, 0x4b, 0x95, 0x59, 0xbe,
  0xef, 0x90, 0xfa, 0x3c, 0x18, 0x8d, 0xcf, 0xbd, 0x72, 0xe5, 0xf0, 0xbe,
  0x03, 0xb3, 0x63, 0xbe, 0x62, 0x35, 0xb2, 0x3e, 0x35, 0xce, 0xa1, 0xbe,
  0x3a, 0x51, 0xd3, 0x3d, 0xbf, 0x3d, 0x11, 0xbf, 0xfe, 0x75, 0x4c, 0xbd,
  0xe1, 0xa1, 0x07, 0x3d, 0xbc, 0x20, 0x63, 0xbe, 0x2a, 0x27, 0x92, 0xbe,
  0xaa, 0x1a, 0x26, 0xbe, 0xe6, 0x1c, 0xc4, 0xbd, 0x85, 0x66, 0xe4, 0x3d,
  0x2e, 0x7f, 0x59, 0xbe, 0x37, 0x14, 0x24, 0x3d, 0x0b, 0x7e, 0xc0, 0xbd,
  0x1a, 0x22, 0xcc, 0xbd, 0x18, 0x96, 0x72, 0xbc, 0x2c, 0xda, 0xaa, 0x3e,
  0x44, 0x6f, 0xca, 0xbe, 0x71, 0x0b, 0xa9, 0xbd, 0x7f, 0x62, 0x51, 0xbe,
  0x72, 0xf6, 0x1f, 0xbd, 0xae, 0x65, 0x20, 0xbd, 0xde, 0x96, 0x03, 0xbe,
  0x13, 0xfc, 0x4f, 0xbe, 0x1c, 0xac, 0x1c, 0xbd, 0xb6, 0x88, 0xe0, 0xbd,
  0xb8, 0x19, 0xd1, 0x3c, 0x11, 0x08, 0x3f, 0xbe, 0xe6, 0xd8, 0x43, 0x3c,
  0x3d, 0xf9, 0x94, 0xbe, 0x6f, 0xe9, 0x7c, 0xbc, 0xcf, 0xa0, 0x61, 0xbe,
  0x4f, 0x1d, 0xbd, 0x3d, 0x6f, 0xab, 0x85, 0xbe, 0x0e, 0xa9, 0xc6, 0xbe,
  0x70, 0xd7, 0x26, 0xbd, 0x8c, 0x10, 0x43, 0xbc, 0x0d, 0x56, 0xdf, 0xbc,
  0x8b, 0x65, 0x40, 0xbe, 0x41, 0xdb, 0x07, 0xbe, 0xfb, 0xd8, 0x1f, 0xbe,
  0x6d, 0x32, 0xb9, 0x3b, 0x8f, 0x35, 0x72, 0xbe, 0xc9, 0x7e, 0x90, 0x3d,
  0xbf, 0x93, 0x14, 0x3d, 0xee, 0x47, 0x5d, 0x3e, 0xfc, 0xcc, 0xde, 0xbe,
  0xdc, 0xab, 0x26, 0xbf, 0x3c, 0x41, 0x1e, 0x3f, 0x7a, 0x36, 0x59, 0x3e,
  0xc8, 0xb2, 0x27, 0xbe, 0xe6, 0x50, 0x8b, 0xbe, 0x70, 0x67, 0x7a, 0x3d,
  0x1e, 0x89, 0x1a, 0xbc, 0x45, 0xd3, 0x86, 0x3d, 0xec, 0xfa, 0x03, 0xbd,
  0x98, 0xa3, 0xa1, 0xbe, 0x7a, 0xf5, 0x95, 0xbd, 0xc0, 0x1d, 0x5f, 0x3d,
  0xc0, 0x00, 0x5d, 0xbe, 0x02, 0x45, 0x89, 0xbe, 0x2e, 0xec, 0xf9, 0x3d,
  0xe6, 0xb4, 0x98, 0xbe, 0x70, 0xfa, 0x97, 0xbc, 0x0b, 0xe6, 0xc0, 0x3e,
  0x2b, 0x50, 0x90, 0x3e, 0xc0, 0x82, 0x2f, 0xbe, 0xb1, 0x26, 0x71, 0xbe,
  0xb6, 0x35, 0x99, 0x3d, 0xb6, 0x5d, 0x32, 0xbe, 0x5d, 0x2c, 0x9b, 0x3d,
  0x86, 0x54, 0xb9, 0x3d, 0x55, 0x1e, 0xd8, 0xbe, 0xc5, 0xb2, 0xf0, 0x3d,
  0x5a, 0xcf, 0x02, 0xbe, 0x12, 0x59, 0xe0, 0xbd, 0xf0, 0x0e, 0xb3, 0xbe,
  0x0f, 0xfa, 0x95, 0xbc, 0xba, 0x76, 0x61, 0xbe, 0xee, 0xc9, 0xfe, 0x3d,
  0xee, 0x42, 0xe6, 0x3e, 0x48, 0x0c, 0x80, 0x3e, 0xf3, 0xb5, 0xa8, 0xbe,
  0xb0, 0x4f, 0x73, 0xbd, 0xd0, 0xf5, 0x28, 0x3d, 0x97, 0x3e, 0xa6, 0xbe,
  0xd2, 0x7f, 0xc4, 0x3c, 0xc9, 0xfc, 0x6d, 0x3e, 0xc2, 0xd0, 0xd0, 0xbe,
  0xef, 0x45, 0x19, 0xbd, 0x1f, 0xcf, 0x62, 0xbd, 0x29, 0xb0, 0xfc, 0xbd,
  0x33, 0x8c, 0xdc, 0x3d, 0xbe, 0x03, 0xe9, 0x3d, 0xa2, 0x7a, 0x01, 0xbe,
  0x4e, 0x7a, 0xcd, 0xbc, 0x78, 0x90, 0x8b, 0x3e, 0xf3, 0xc3, 0x1a, 0x3e,
  0x38, 0x10, 0x9c, 0xbe, 0x2d, 0x4c, 0x4f, 0xbe, 0xb5, 0x53, 0x1c, 0x3c,
  0x66, 0xde, 0xd0, 0xbe, 0x4b, 0x13, 0xc7, 0x3d, 0x75, 0x62, 0xa4, 0x3e,
  0xd8, 0x5d, 0x7c, 0xbe, 0x0d, 0x75, 0x41, 0x3e, 0x19, 0xfc, 0x9e, 0xbd,
  0x64, 0x59, 0x5f, 0xbe, 0x14, 0x07, 0x38, 0x3d, 0x42, 0xbf, 0xcc, 0x3d,
  0x4b, 0x98, 0x2c, 0xbe, 0x67, 0x20, 0x2d, 0x3c, 0xae, 0x14, 0x08, 0x3f,
  0x36, 0x33, 0x6f, 0x3e, 0xd6, 0x35, 0x9a, 0xbe, 0x09, 0x88, 0x3c, 0xbe,
  0x68, 0x84, 0x90, 0x3d, 0x7e, 0xc8, 0x2c, 0xbe, 0x0b, 0x3a, 0x32, 0xbc,
  0x9d, 0x28, 0x4c, 0x3e, 0x3f, 0xb1, 0xab, 0xbe, 0x90, 0xe2, 0xd3, 0xbd,
  0x75, 0x55, 0x0e, 0xbe, 0x01, 0x6f, 0x84, 0x39, 0xbb, 0x4d, 0xb0, 0xbd,
  0xe0, 0xe8, 0xc7, 0x3c, 0x80, 0x07, 0x6c, 0xbe, 0x31, 0x31, 0x9c, 0xbd,
  0x3e, 0x10, 0xc7, 0x3d, 0x45, 0x96, 0xa7, 0x3e, 0xff, 0xa0, 0x52, 0xbe,
  0xef, 0x23, 0x9f, 0xbd, 0x4e, 0x64, 0x51, 0x3d, 0xaf, 0x40, 0xdd, 0xbd,
  0x58, 0xc9, 0x59, 0xbb, 0x51, 0x96, 0xdb, 0x3e, 0x6c, 0x82, 0xd9, 0xbe,
  0x30, 0x33, 0xe6, 0xbe, 0x3e, 0x26, 0x93, 0x3d, 0x9a, 0xc6, 0xc2, 0xbd,
  0x28, 0x6d, 0xd2, 0xbd, 0x4d, 0x8a, 0xb8, 0x3d, 0xfe, 0xd6, 0x16, 0xbe,
  0x53, 0x20, 0x25, 0xbe, 0x05, 0xe8, 0x41, 0x3e, 0xb9, 0xdd, 0x4a, 0xbd,
  0xc9, 0x48, 0x26, 0xbe, 0x48, 0x57, 0x43, 0xbd, 0xab, 0x4a, 0x1d, 0x3d,
  0x89, 0x43, 0xd1, 0xbd, 0xcc, 0x63, 0x8b, 0x3d, 0x01, 0x6f, 0xd2, 0xbe,
  0xc4, 0x77, 0x02, 0xbe, 0x94, 0x55, 0x92, 0xbd, 0x30, 0xda, 0xec, 0x3d,
  0x0b, 0xcb, 0x18, 0xbe, 0xc4, 0x68, 0xff, 0xbd, 0x1f, 0xc1, 0xab, 0xbd,
  0xe8, 0x26, 0x23, 0xbe, 0xa0, 0xe1, 0x9b, 0xbe, 0xaf, 0x15, 0x55, 0x3d,
  0x50, 0x4e, 0x08, 0x3e, 0x8b, 0xb6, 0x58, 0xbe, 0x82, 0x31, 0x5d, 0xbe,
  0x98, 0x7c, 0x1e, 0xbc, 0xc9, 0x20, 0xc3, 0xbd, 0x2f, 0x23, 0x94, 0xbc,
  0x8c, 0xe0, 0xdc, 0xbd, 0xd7, 0x57, 0x07, 0xbe, 0x07, 0xa0, 0x37, 0xbe,
  0x45, 0x10, 0xbd, 0x3b, 0x7d, 0x9e, 0x42, 0xbe, 0x2a, 0xda, 0x05, 0xbd,
  0xe9, 0xe4, 0x52, 0xbb, 0xe1, 0xf8, 0x40, 0xbc, 0x18, 0xa8, 0xe2, 0xbd,
  0xf4, 0x3c, 0x89, 0xbe, 0x97, 0x18, 0xa8, 0x3e, 0xa6, 0x27, 0x02, 0x3e,
  0xcf, 0x18, 0xdc, 0xbd, 0x3d, 0xd4, 0x03, 0xbd, 0x0e, 0xe5, 0xd2, 0xbc,
  0x64, 0x0d, 0x21, 0xbd, 0xe9, 0x11, 0x04, 0xbd, 0x3c, 0x31, 0x83, 0xbc,
  0x8a, 0xc0, 0x77, 0x3e, 0xc0, 0x0e, 0x9f, 0x3e, 0xb7, 0xda, 0x2b, 0x3e,
  0xd1, 0xa7, 0xff, 0x3d, 0x94, 0x32, 0x2b, 0xbd, 0xba, 0x89, 0x96, 0xbd,
  0x7e, 0xa4, 0xaf, 0xbc, 0xa4, 0x32, 0x76, 0xbd, 0xda, 0xb3, 0xb2, 0x3d,
  0x73, 0xc7, 0x4f, 0x3d, 0xde, 0x7f, 0x13, 0x3e, 0xa1, 0x9b, 0x08, 0xbd,
  0xd2, 0xf2, 0xd7, 0x3c, 0x49, 0x98, 0x65, 0x3d, 0x8d, 0xb0, 0x1d, 0xbd,
  0x6a, 0x2a, 0x62, 0xbd, 0xe6, 0xdc, 0xd5, 0x3d, 0xbe, 0x6a, 0x3f, 0x3e,
  0x77, 0x01, 0x0b, 0xbd, 0x94, 0xfc, 0xf3, 0x3d, 0x04, 0x72, 0x1f, 0xbe,
  0x05, 0x5c, 0xed, 0xbb, 0x88, 0x91, 0x0f, 0xbe, 0x3f, 0x40, 0xc2, 0xbd,
  0x19, 0x28, 0x2c, 0xbd, 0x4d, 0x0d, 0xa7, 0x3d, 0xc1, 0x28, 0x49, 0x3e,
  0xdf, 0xae, 0x34, 0xbd, 0x07, 0x56, 0xb5, 0xbc, 0x7f, 0x92, 0x3f, 0x3c,
  0xb5, 0x32, 0x63, 0xbd, 0x05, 0x0a, 0xcc, 0xbd, 0x47, 0xb7, 0x37, 0x3d,
  0xc0, 0x83, 0x36, 0x3e, 0xc7, 0xc1, 0x5d, 0xbe, 0x73, 0x06, 0x8a, 0x3e,
  0x10, 0x2c, 0xb0, 0xbe, 0x74, 0xed, 0x57, 0x3a, 0xce, 0xdd, 0x35, 0xbe,
  0xe3, 0x41, 0x69, 0xbe, 0xa3, 0xbe, 0x35, 0x3d, 0x39, 0xdf, 0x0d, 0x3e,
  0x61, 0xfe, 0x1b, 0x3e, 0x84, 0x89, 0xc3, 0xbc, 0x51, 0x30, 0xaf, 0xbc,
  0x46, 0x53, 0x12, 0xbd, 0xdc, 0x2b, 0xeb, 0xbd, 0x75, 0x73, 0xef, 0xbd,
  0x22, 0x96, 0x11, 0x3e, 0x58, 0xeb, 0x80, 0x3e, 0x0b, 0xc8, 0xc3, 0x3d,
  0xf4, 0x56, 0x14, 0x3d, 0xcd, 0x05, 0x95, 0xbe, 0xde, 0x31, 0xe0, 0xba,
  0x16, 0x4c, 0xaa, 0xbd, 0xf0, 0x3d, 0x81, 0xbd, 0x3c, 0x25, 0xc7, 0x3e,
  0xc0, 0xd1, 0x29, 0x3e, 0x2d, 0x9a, 0x71, 0x3e, 0x38, 0x94, 0xc5, 0x3b,
  0x9e, 0xc3, 0x85, 0x3d, 0x4e, 0x31, 0xb9, 0x3c, 0xc7, 0xe7, 0x87, 0x3c,
  0x9b, 0x7f, 0x8a, 0xbd, 0x58, 0x66, 0x50, 0x3e, 0x03, 0xcb, 0x09, 0x3e,
  0xb1, 0x7e, 0x64, 0x3e, 0xe5, 0x51, 0x86, 0x3d, 0x3a, 0xcd, 0x40, 0xbe,
  0x39, 0xf5, 0x8d, 0x3d, 0x0f, 0xdd, 0xc2, 0x3d, 0x25, 0x2a, 0x23, 0x3e,
  0x95, 0x80, 0xb8, 0x3d, 0x45, 0x9e, 0x9d, 0x3d, 0xb9, 0xac, 0x69, 0xbc,
  0x50, 0x74, 0x67, 0x3d, 0x2e, 0x15, 0xe5, 0x3b, 0xf8, 0x1c, 0x19, 0xbc,
  0x75, 0xb3, 0x36, 0x3e, 0xfa, 0x93, 0x4b, 0xbc, 0xa9, 0x65, 0x9f, 0x3d,
  0x4f, 0xff, 0xae, 0xbd, 0xb6, 0x7e, 0xd0, 0x3d, 0xbc, 0xd7, 0x42, 0x3c,
  0xdb, 0x47, 0xa3, 0xbd, 0xe9, 0x4c, 0xca, 0xbd, 0xb7, 0x43, 0x60, 0xbe,
  0xd0, 0x4e, 0x7c, 0xbe, 0x52, 0x60, 0x7b, 0xbe, 0x2f, 0x5e, 0x4b, 0xbe,
  0xd5, 0x2b, 0xf5, 0x3c, 0x08, 0xf2, 0x0a, 0xbe, 0x82, 0x06, 0x60, 0xbe,
  0x9b, 0x3f, 0x0b, 0xbe, 0xf7, 0xfd, 0x3b, 0x3d, 0x56, 0xa0, 0x54, 0xbe,
  0x2b, 0x7b, 0x14, 0xbe, 0xbb, 0xcd, 0x19, 0x3d, 0xc0, 0xbb, 0x85, 0xbe,
  0xce, 0x15, 0x98, 0x3d, 0xb0, 0x99, 0xfb, 0xbd, 0xb0, 0x64, 0x89, 0xbd,
  0x3e, 0xff, 0x80, 0xbd, 0x1f, 0xdd, 0xc5, 0x3d, 0x6f, 0xb9, 0xf3, 0x3d,
  0x63, 0x5f, 0x5c, 0x3d, 0x28, 0xfa, 0x9a, 0xbb, 0xf5, 0x3d, 0xdd, 0xbd,
  0x43, 0xde, 0x62, 0xbd, 0xf7, 0xfe, 0x82, 0x3d, 0x97, 0xff, 0x37, 0x3d,
  0x49, 0x79, 0x95, 0xbd, 0x43, 0xfc, 0xea, 0x3c, 0x6f, 0x54, 0xcd, 0xbd,
  0x36, 0xae, 0xcc, 0x3d, 0xed, 0xde, 0x08, 0xbe, 0x44, 0x62, 0xf4, 0x3c,
  0xcb, 0x44, 0x05, 0xbe, 0x02, 0x6e, 0x86, 0xbe, 0x59, 0x9c, 0xb3, 0xbd,
  0xd7, 0x28, 0x44, 0xbe, 0xa0, 0x0b, 0x9b, 0xbb, 0x22, 0x8e, 0xeb, 0x3c,
  0xb7, 0x66, 0xc9, 0x39, 0x8a, 0xe4, 0x93, 0xbc, 0xa5, 0x58, 0x8b, 0xbe,
  0xce, 0xdc, 0x86, 0xbe, 0x19, 0x87, 0x9b, 0xbe, 0x26, 0x79, 0xb6, 0x3c,
  0x74, 0xd5, 0x1c, 0xbe, 0x69, 0x2f, 0xdf, 0x3d, 0xc8, 0x23, 0x8f, 0x3d,
  0x32, 0xd2, 0x51, 0xbe, 0x9f, 0x3a, 0x3c, 0xbe, 0xa7, 0x2e, 0x84, 0xbd,
  0xa2, 0xfe, 0xec, 0xbd, 0xad, 0x90, 0xa8, 0x3d, 0x77, 0xb8, 0x75, 0xbe,
  0xb3, 0xbc, 0x25, 0x3c, 0xed, 0xa5, 0x67, 0xbe, 0x1e, 0xc3, 0x7e, 0xbe,
  0xab, 0x52, 0x78, 0xbe, 0x11, 0xae, 0x1e, 0x3d, 0x60, 0x7f, 0xd7, 0xbd,
  0xe4, 0x79, 0xfc, 0x3c, 0x50, 0x07, 0x81, 0x3d, 0xba, 0x41, 0xf6, 0xbd,
  0x0d, 0x2d, 0xb5, 0xbc, 0xc9, 0xf5, 0x4a, 0xbe, 0xfb, 0xdf, 0x34, 0xbc,
  0x95, 0x00, 0x3b, 0x3d, 0x56, 0x34, 0x34, 0xbe, 0x07, 0xa8, 0x9e, 0x3c,
  0x70, 0xf4, 0xaa, 0xbd, 0x15, 0x6b, 0xb7, 0x3d, 0x39, 0x1f, 0x81, 0xbe,
  0x74, 0x50, 0x18, 0x3d, 0x05, 0x21, 0x86, 0xbe, 0x2a, 0x46, 0xd9, 0x3d,
  0xaf, 0x35, 0x78, 0xbe, 0xea, 0xd5, 0x36, 0xbe, 0x4a, 0x05, 0xd8, 0xbc,
  0x13, 0x8a, 0xd9, 0xbd, 0xce, 0x33, 0x35, 0xbd, 0xc0, 0xaa, 0x78, 0x3d,
  0x2d, 0xfa, 0x6d, 0xbe, 0xa7, 0xdb, 0xa3, 0xbe, 0x1e, 0xcc, 0xe7, 0xbd,
  0x47, 0x4e, 0x06, 0x3d, 0xc3, 0xbb, 0x68, 0xbe, 0xc3, 0xa2, 0x5c, 0xbe,
  0xd8, 0xbd, 0x9f, 0xbe, 0xf4, 0x48, 0x84, 0xbd, 0xaa, 0x71, 0x87, 0xbd,
  0x81, 0x93, 0xc3, 0x3d, 0xb0, 0xb3, 0x25, 0xbe, 0xc0, 0x2c, 0x74, 0x3d,
  0x29, 0x1d, 0x1d, 0xbe, 0x4f, 0x52, 0x4e, 0xbd, 0xd2, 0x41, 0xeb, 0x3d,
  0xf4, 0xfe, 0x2d, 0xbd, 0xca, 0x6c, 0x39, 0xbe, 0xa4, 0x7b, 0x7b, 0xbd,
  0xb0, 0xf3, 0x57, 0xbd, 0xc7, 0x91, 0x50, 0xbe, 0x9a, 0x25, 0x21, 0xbe,
  0xa7, 0x31, 0x5d, 0xbe, 0x82, 0x13, 0x88, 0xbe, 0x7f, 0xa3, 0x8e, 0xbe,
  0x35, 0xa5, 0xcb, 0xbd, 0xbd, 0xb2, 0x18, 0x3e, 0xe5, 0xf1, 0x72, 0xbd,
  0x36, 0x32, 0xdc, 0x3b, 0x3c, 0x2f, 0xae, 0x3d, 0xe8, 0x32, 0xeb, 0x3d,
  0x14, 0x3f, 0xb9, 0x3d, 0x9c, 0xc2, 0x2a, 0xbf, 0xf7, 0xbd, 0x0b, 0xbf,
  0x78, 0xb6, 0xb7, 0xbe, 0x8b, 0x20, 0x82, 0xbe, 0xd2, 0x94, 0xeb, 0xbe,
  0x86, 0xa0, 0xb7, 0xbd, 0xb4, 0xdd, 0x36, 0xbf, 0x8f, 0x47, 0x8c, 0xbe,
  0xdf, 0x0a, 0x2f, 0xbf, 0x72, 0x8d, 0x4a, 0x3c, 0xc0, 0x57, 0x47, 0xbf,
  0xb5, 0xd9, 0x5a, 0xbe, 0x9e, 0x6b, 0x82, 0xbe, 0xca, 0xff, 0xa6, 0xbe,
  0x4a, 0xcb, 0xde, 0xbe, 0x53, 0xf8, 0x98, 0xbe, 0x4e, 0x0b, 0x53, 0xbe,
  0x1a, 0xa4, 0x5d, 0xbf, 0xe3, 0x4c, 0x8d, 0xbc, 0x19, 0xe1, 0xdd, 0x3d,
  0xa2, 0x1f, 0x5d, 0xbe, 0xaa, 0x7f, 0x35, 0xbd, 0x01, 0x35, 0x8a, 0xbe,
  0x13, 0x46, 0x7d, 0xbe, 0x4e, 0xe0, 0xe5, 0xbe, 0x1c, 0x06, 0xc0, 0x3d,
  0x7a, 0xe9, 0x03, 0xbf, 0x5d, 0x8f, 0x0a, 0xbf, 0xdf, 0x5c, 0xa0, 0xbe,
  0xe8, 0x7e, 0x84, 0xbe, 0x7c, 0x6b, 0x2b, 0xbf, 0x55, 0x8c, 0x9c, 0x3d,
  0xbd, 0x73, 0xb5, 0xbe, 0x63, 0x7d, 0x4f, 0xbf, 0x62, 0x44, 0x43, 0xbe,
  0x70, 0x21, 0xe4, 0xbb, 0x6c, 0x35, 0xd2, 0xbe, 0x5f, 0x82, 0x94, 0xbe,
  0xe8, 0x0b, 0x2a, 0xbe, 0xc5, 0x8d, 0x91, 0xbe, 0x12, 0xd3, 0xc1, 0xbe,
  0x91, 0x87, 0x04, 0xbd, 0xca, 0xa3, 0x4b, 0xbf, 0x22, 0x5e, 0x93, 0xbe,
  0xf8, 0xd8, 0x89, 0xbe, 0x5e, 0x04, 0xbf, 0xbe, 0x65, 0x3d, 0x3a, 0xbf,
  0x5a, 0xad, 0x2d, 0xbd, 0x46, 0x52, 0xb9, 0xbe, 0xcb, 0xdb, 0x50, 0xbf,
  0x88, 0x7c, 0xa9, 0xbd, 0x3f, 0xc1, 0x02, 0xbe, 0x83, 0x35, 0x00, 0xbf,
  0xa3, 0x96, 0x23, 0xbd, 0x36, 0x87, 0x0b, 0xbe, 0xb1, 0x07, 0x88, 0xbe,
  0xb5, 0x19, 0x43, 0xbe, 0x84, 0xc0, 0x34, 0x3d, 0x21, 0x71, 0x10, 0xbf,
  0x30, 0x58, 0x26, 0xbf, 0x0e, 0x44, 0xfa, 0xbe, 0x30, 0x14, 0xe7, 0x3c,
  0x35, 0x06, 0x16, 0xbf, 0x97, 0xca, 0x4f, 0xbe, 0xea, 0x10, 0xb3, 0xbe,
  0xb2, 0xeb, 0xd0, 0x3d, 0x2a, 0xc8, 0x10, 0xbb, 0x78, 0x15, 0x9d, 0x3d,
  0x72, 0x2c, 0xda, 0x3d, 0xe1, 0xfd, 0x10, 0x3d, 0x2f, 0x5d, 0x72, 0x3e,
  0x76, 0x19, 0x01, 0xbe, 0x7e, 0x6a, 0x33, 0x3e, 0xeb, 0xfd, 0x76, 0x3c,
  0x28, 0x42, 0x08, 0xbf, 0xbd, 0x5b, 0x52, 0xbe, 0x11, 0x5c, 0x8c, 0xbd,
  0x78, 0xb9, 0x43, 0x3c, 0xe5, 0x78, 0x8d, 0x3e, 0x40, 0x47, 0x10, 0xbe,
  0x61, 0x55, 0xa0, 0xba, 0x47, 0x7a, 0x89, 0x3d, 0xf2, 0xd5, 0xfe, 0x3d,
  0xb1, 0x01, 0x81, 0xbe, 0x96, 0xe4, 0x42, 0x3e, 0x88, 0xa2, 0x02, 0x3d,
  0x3d, 0xbc, 0x36, 0x3e, 0x43, 0x93, 0x86, 0x3c, 0x8b, 0xf5, 0x69, 0x3d,
  0x2e, 0x6b, 0x5d, 0x3d, 0xf3, 0x81, 0x37, 0xbe, 0x44, 0x4e, 0x09, 0xbe,
  0xcd, 0x7b, 0x37, 0x3e, 0xcf, 0xdd, 0xba, 0xbd, 0xee, 0x35, 0x37, 0x3e,
  0xa2, 0xec, 0x63, 0xbd, 0xe9, 0xb3, 0x9e, 0x3d, 0x52, 0xab, 0x9b, 0x3d,
  0xb7, 0x5e, 0x01, 0x3e, 0xcb, 0xcd, 0x91, 0xbe, 0xe2, 0x1c, 0xa3, 0x3e,
  0x49, 0x8a, 0x4a, 0x3d, 0xec, 0x77, 0xb2, 0xbc, 0x83, 0x55, 0x33, 0x3d,
  0x82, 0x2b, 0x9b, 0x3c, 0x22, 0x67, 0x51, 0xbc, 0x39, 0x95, 0xc8, 0xbd,
  0x12, 0x0c, 0x13, 0xbd, 0x48, 0x20, 0x77, 0x3e, 0xca, 0xf2, 0x7b, 0xbe,
  0xdc, 0x25, 0x54, 0x3e, 0x52, 0x20, 0x59, 0x3d, 0xce, 0x76, 0x87, 0x3d,
  0xa7, 0x9d, 0xa3, 0xbe, 0x6e, 0x4d, 0xb5, 0xbd, 0x5b, 0x15, 0x90, 0x3e,
  0x5f, 0x84, 0xa6, 0x3e, 0x97, 0x69, 0x93, 0x3c, 0x67, 0x0b, 0x48, 0xbe,
  0xa0, 0x3d, 0x50, 0x3d, 0xc7, 0xd6, 0x99, 0x3d, 0x74, 0x84, 0x2d, 0x3e,
  0xef, 0x60, 0x97, 0xbc, 0x26, 0xc1, 0xc8, 0xbd, 0xf5, 0x2d, 0x98, 0xbe,
  0xca, 0x2d, 0x90, 0xbd, 0x81, 0xc3, 0x4e, 0x3d, 0x0c, 0x06, 0xbb, 0xbe,
  0xf7, 0xf1, 0xe7, 0x3c, 0x01, 0xf0, 0xae, 0xbe, 0xcc, 0x22, 0x61, 0x3e,
  0x6d, 0x80, 0xd9, 0x3d, 0x4a, 0x84, 0x15, 0x3e, 0x84, 0xaa, 0x7e, 0xbe,
  0x94, 0x33, 0xbe, 0xbe, 0xe6, 0x18, 0x4f, 0x3d, 0x0e, 0x7a, 0x03, 0x3e,
  0x41, 0xbf, 0x8e, 0x3d, 0x61, 0x77, 0xfe, 0xbc, 0x0a, 0x48, 0x39, 0xbe,
  0x0c, 0x7c, 0x93, 0xbd, 0x78, 0x05, 0x52, 0xbe, 0xb2, 0xf4, 0x80, 0xbe,
  0xe7, 0x17, 0xef, 0xbe, 0x01, 0x1c, 0xc7, 0x3d, 0x94, 0x79, 0xd0, 0xbe,
  0x01, 0x9a, 0xb7, 0x3e, 0xa7, 0xa3, 0xe1, 0x3d, 0xcb, 0xa6, 0xec, 0x3d,
  0x65, 0x62, 0x96, 0xbd, 0x2f, 0xea, 0x56, 0xbe, 0x40, 0x05, 0x55, 0x3d,
  0xa1, 0x07, 0x09, 0x3e, 0x34, 0xa8, 0x0c, 0xbd, 0x64, 0x89, 0x70, 0x3e,
  0x31, 0x5c, 0x53, 0x3e, 0x3f, 0xdb, 0xa9, 0x3b, 0xde, 0xd4, 0x8a, 0xbd,
  0x98, 0xf6, 0x07, 0xbe, 0x22, 0x3e, 0xb9, 0xbe, 0x14, 0x34, 0xc5, 0xbc,
  0xd6, 0x31, 0x3a, 0xbe, 0x0d, 0x9b, 0x54, 0x3e, 0xe2, 0x7c, 0x41, 0xbb,
  0x07, 0xa3, 0x97, 0x3e, 0x21, 0x4d, 0x70, 0xbe, 0x93, 0x15, 0xa4, 0xbe,
  0x2f, 0xff, 0x72, 0x3c, 0xa7, 0x2e, 0xe9, 0x3d, 0x4b, 0x20, 0x1b, 0x3c,
  0xc6, 0xdf, 0x0c, 0x3e, 0xd1, 0x4f, 0xcd, 0x3d, 0x3f, 0xac, 0x31, 0xbe,
  0xdf, 0xd1, 0x34, 0xbe, 0x91, 0x45, 0xc3, 0x3c, 0xdb, 0xc9, 0xba, 0xbd,
  0x1c, 0x3b, 0x0f, 0x3d, 0xd8, 0xea, 0xcc, 0xbe, 0xf3, 0xe7, 0x5c, 0x3e,
  0x13, 0xb1, 0x96, 0x3d, 0xe0, 0x00, 0x76, 0x3e, 0xca, 0xea, 0x8a, 0xbe,
  0x84, 0x3f, 0x81, 0xbe, 0xc9, 0x5e, 0x07, 0x3d, 0x2d, 0x56, 0xe8, 0x3d,
  0x83, 0x50, 0x24, 0xbd, 0xd1, 0x38, 0x3c, 0x3e, 0xe8, 0xca, 0xd1, 0x3c,
  0xa4, 0x2a, 0xb1, 0xbe, 0x04, 0xcb, 0xaa, 0xbe, 0x94, 0x02, 0xa2, 0x3d,
  0x06, 0xbc, 0x99, 0xbe, 0x40, 0x60, 0x31, 0x3c, 0xaa, 0xbd, 0x0f, 0xbf,
  0xda, 0x72, 0xaf, 0x3e, 0xaf, 0xce, 0x40, 0x3a, 0x53, 0xdf, 0x76, 0x3e,
  0x0e, 0x02, 0x99, 0xbe, 0x18, 0xdc, 0x75, 0xbe, 0x4e, 0xbf, 0xdd, 0x3c,
  0x68, 0xf6, 0x0b, 0x3e, 0x08, 0xc6, 0x79, 0xbc, 0x84, 0xe2, 0x64, 0x3e,
  0xfa, 0xd4, 0xd6, 0xbd, 0x09, 0xa9, 0x80, 0xbf, 0x1a, 0x11, 0xb8, 0xbd,
  0xba, 0x84, 0x13, 0xbd, 0xc0, 0xad, 0xa7, 0xbe, 0x7d, 0x5f, 0x9f, 0x3c,
  0x06, 0x51, 0x9c, 0xbd, 0x9c, 0x40, 0xe4, 0xbb, 0x12, 0x67, 0xe3, 0x3d,
  0x73, 0xa9, 0x71, 0xbd, 0x11, 0xae, 0x24, 0x3d, 0xc6, 0xc3, 0x01, 0xbd,
  0xb6, 0x13, 0xc1, 0x3c, 0x01, 0x1c, 0x24, 0x3d, 0x2e, 0xf7, 0xa6, 0x3d,
  0x99, 0x1d, 0x74, 0xbe, 0x86, 0x86, 0xc0, 0xbd, 0x9d, 0xe1, 0x04, 0xbc,
  0xa9, 0xa7, 0x26, 0x3e, 0x85, 0x44, 0x07, 0x3e, 0xca, 0xcd, 0xf1, 0xbd,
  0x0b, 0x12, 0xcf, 0x3d, 0xe3, 0x07, 0x64, 0xbe, 0xea, 0x56, 0xd9, 0xbd,
  0xf7, 0x5c, 0x16, 0x3d, 0x4b, 0x74, 0x46, 0xbe, 0xd9, 0xad, 0x5b, 0x3d,
  0x10, 0x8c, 0xfc, 0x3c, 0xe2, 0x9f, 0x37, 0xbe, 0x2c, 0x6c, 0x51, 0xbe,
  0x05, 0x27, 0x87, 0xbe, 0xcb, 0x01, 0xe9, 0xbd, 0xe9, 0x65, 0xd2, 0xbd,
  0x7e, 0x3f, 0x17, 0x3e, 0x8d, 0xd6, 0x46, 0xbe, 0x63, 0x78, 0x6c, 0x3d,
  0x8b, 0xa3, 0x15, 0xbe, 0xad, 0x4f, 0xd6, 0xbc, 0xf3, 0xfa, 0x15, 0x3c,
  0x47, 0x0a, 0x8b, 0xbe, 0x90, 0x42, 0xd9, 0xbd, 0x63, 0x95, 0xa7, 0x3d,
  0x58, 0x55, 0xb5, 0xbd, 0x22, 0x19, 0x16, 0xbe, 0x97, 0xfc, 0x18, 0xbe,
  0x74, 0x1c, 0x24, 0xbb, 0x34, 0x43, 0xeb, 0x3d, 0xff, 0xe2, 0x2d, 0xbe,
  0x17, 0x47, 0xa5, 0x3c, 0x5b, 0xe5, 0x88, 0xbc, 0xd7, 0x4b, 0x0a, 0x3e,
  0x9d, 0x15, 0x44, 0x3d, 0x25, 0x6b, 0x84, 0xbe, 0x05, 0x0d, 0x21, 0x3d,
  0x08, 0x02, 0x31, 0x3b, 0x3c, 0xd6, 0xa2, 0x3d, 0x9d, 0x8e, 0x2f, 0xbd,
  0x7c, 0x7e, 0x38, 0xbd, 0x4e, 0x64, 0x97, 0xbd, 0x88, 0x42, 0x98, 0x3d,
  0x16, 0xf0, 0x35, 0xbe, 0xf1, 0xdf, 0x47, 0xbe, 0x05, 0x8a, 0xb6, 0xbb,
  0x53, 0x80, 0x36, 0xbe, 0xfd, 0xe3, 0xf7, 0xbc, 0x56, 0xd4, 0x60, 0xbe,
  0x11, 0x4b, 0xd6, 0xbd, 0xb0, 0x67, 0x3b, 0xbe, 0xf6, 0x4f, 0x9b, 0x3d,
  0x68, 0x3f, 0x46, 0xbe, 0x3b, 0x31, 0x63, 0xbe, 0xea, 0x5b, 0x91, 0x3d,
  0xb5, 0x8b, 0x1d, 0xbe, 0x7d, 0x1d, 0x89, 0xbc, 0xcb, 0x17, 0xb4, 0x3b,
  0xb0, 0x8b, 0x1f, 0xbd, 0xe5, 0x41, 0x68, 0xbe, 0xae, 0x8b, 0x4c, 0xbe,
  0x47, 0xfc, 0xd0, 0xbd, 0xd7, 0x59, 0x27, 0x3d, 0xd7, 0x43, 0x83, 0x3d,
  0xfa, 0x5b, 0x2a, 0x3d, 0x15, 0x71, 0xc2, 0x3d, 0xa1, 0x0f, 0x8b, 0x3d,
  0xa2, 0xd9, 0x26, 0xbe, 0x50, 0x54, 0x5a, 0x3d, 0x54, 0xcf, 0x91, 0xbe,
  0x41, 0x5e, 0x9e, 0x3d, 0x4c, 0x00, 0x0a, 0xbe, 0xed, 0xac, 0x1a, 0xbe,
  0x90, 0x1a, 0x10, 0xbc, 0x16, 0x3e, 0x2c, 0xbe, 0xf1, 0xc7, 0x24, 0x3d,
  0x5a, 0xda, 0x48, 0x3d, 0x96, 0x94, 0x6b, 0xbd, 0xe4, 0x42, 0x92, 0xbc,
  0xa7, 0x45, 0x37, 0x3d, 0x1a, 0x15, 0x35, 0x3d, 0xb8, 0x69, 0x66, 0x3d,
  0x11, 0x98, 0x1b, 0x3e, 0x26, 0xa9, 0x43, 0x3b, 0x53, 0x95, 0x14, 0x3e,
  0xe3, 0x74, 0x3f, 0x3c, 0xfe, 0x9c, 0xdd, 0xbc, 0x96, 0xb6, 0x19, 0xbe,
  0x9e, 0x53, 0xdc, 0xbd, 0xb1, 0xae, 0x51, 0xbe, 0x4f, 0xda, 0x75, 0xbd,
  0x96, 0x23, 0x64, 0xbe, 0xc9, 0x4f, 0x74, 0xbe, 0xef, 0xed, 0x1a, 0xbe,
  0x8a, 0x11, 0xe1, 0xbd, 0x77, 0x5d, 0x85, 0xbe, 0x70, 0x34, 0x36, 0xbe,
  0x33, 0xaf, 0x1c, 0xbe, 0x20, 0xf5, 0x3b, 0xbe, 0x3d, 0xbb, 0x41, 0xbe,
  0xd1, 0x44, 0x85, 0xbe, 0xc5, 0x37, 0x3b, 0xbe, 0x41, 0x0b, 0x8f, 0xbe,
  0x6b, 0x08, 0x0f, 0xbe, 0x0e, 0x5a, 0x0e, 0xbe, 0x11, 0x37, 0x31, 0xbe,
  0x8c, 0xb7, 0xed, 0xbd, 0xa9, 0x7e, 0x55, 0xbd, 0xc0, 0x35, 0xde, 0x3b,
  0xf4, 0x0f, 0xac, 0xbd, 0xe4, 0xb4, 0x2b, 0xbe, 0xe2, 0x91, 0xbc, 0xbc,
  0x27, 0xdf, 0x1f, 0xbe, 0x60, 0x3a, 0xda, 0xbd, 0x6f, 0xce, 0x9f, 0x3d,
  0x7e, 0x29, 0x30, 0xbd, 0x62, 0xfd, 0xff, 0xff, 0x10, 0x00, 0x00, 0x00,
  0x07, 0x00, 0x00, 0x00, 0x14, 0x00, 0x00, 0x00, 0x2c, 0x00, 0x00, 0x00,
  0x02, 0x00, 0x00, 0x00, 0x10, 0x00, 0x00, 0x00, 0x70, 0x00, 0x00, 0x00,
  0x17, 0x00, 0x00, 0x00, 0x73, 0x65, 0x71, 0x75, 0x65, 0x6e, 0x74, 0x69,
  0x61, 0x6c, 0x2f, 0x64, 0x65, 0x6e, 0x73, 0x65, 0x2f, 0x4d, 0x61, 0x74,
  0x4d, 0x75, 0x6c, 0x00, 0xcc, 0xfc, 0xff, 0xff, 0xd6, 0xfd, 0xff, 0xff,
  0x04, 0x00, 0x00, 0x00, 0x08, 0x00, 0x00, 0x00, 0xff, 0xff, 0xff, 0xff,
  0x70, 0x00, 0x00, 0x00, 0x00, 0x00, 0x0e, 0x00, 0x18, 0x00, 0x08, 0x00,
  0x07, 0x00, 0x0c, 0x00, 0x10, 0x00, 0x14, 0x00, 0x0e, 0x00, 0x00, 0x00,
  0x00, 0x00, 0x00, 0x02, 0x10, 0x00, 0x00, 0x00, 0x06, 0x00, 0x00, 0x00,
  0x10, 0x00, 0x00, 0x00, 0x2c, 0x00, 0x00, 0x00, 0x01, 0x00, 0x00, 0x00,
  0x02, 0x00, 0x00, 0x00, 0x18, 0x00, 0x00, 0x00, 0x73, 0x65, 0x71, 0x75,
  0x65, 0x6e, 0x74, 0x69, 0x61, 0x6c, 0x2f, 0x66, 0x6c, 0x61, 0x74, 0x74,
  0x65, 0x6e, 0x2f, 0x43, 0x6f, 0x6e, 0x73, 0x74, 0x00, 0x00, 0x00, 0x00,
  0x34, 0xfd, 0xff, 0xff, 0x3e, 0xfe, 0xff, 0xff, 0x04, 0x00, 0x00, 0x00,
  0x10, 0x00, 0x00, 0x00, 0xde, 0x1a, 0xa1, 0x3f, 0x3b, 0x6f, 0x84, 0xc0,
  0x26, 0x87, 0x97, 0xbf, 0xc9, 0x82, 0xcc, 0x3f, 0x26, 0xfe, 0xff, 0xff,
  0x10, 0x00, 0x00, 0x00, 0x05, 0x00, 0x00, 0x00, 0x10, 0x00, 0x00, 0x00,
  0x44, 0x00, 0x00, 0x00, 0x01, 0x00, 0x00, 0x00, 0x04, 0x00, 0x00, 0x00,
  0x32, 0x00, 0x00, 0x00, 0x73, 0x65, 0x71, 0x75, 0x65, 0x6e, 0x74, 0x69,
  0x61, 0x6c, 0x2f, 0x64, 0x65, 0x6e, 0x73, 0x65, 0x5f, 0x31, 0x2f, 0x42,
  0x69, 0x61, 0x73, 0x41, 0x64, 0x64, 0x2f, 0x52, 0x65, 0x61, 0x64, 0x56,
  0x61, 0x72, 0x69, 0x61, 0x62, 0x6c, 0x65, 0x4f, 0x70, 0x2f, 0x72, 0x65,
  0x73, 0x6f, 0x75, 0x72, 0x63, 0x65, 0x00, 0x00, 0xa8, 0xfd, 0xff, 0xff,
  0xb2, 0xfe, 0xff, 0xff, 0x04, 0x00, 0x00, 0x00, 0x40, 0x00, 0x00, 0x00,
  0x47, 0x2b, 0xa2, 0xbe, 0xe8, 0xcc, 0x24, 0x3d, 0xba, 0xbe, 0xa8, 0xbf,
  0x01, 0x03, 0xd3, 0xbf, 0x20, 0x11, 0x2b, 0xbe, 0x66, 0x0f, 0x61, 0xbe,
  0x03, 0xae, 0x14, 0xc0, 0x4e, 0xbe, 0x62, 0xbd, 0x43, 0x25, 0x9b, 0xbf,
  0x7c, 0x4e, 0x96, 0xbf, 0x62, 0x11, 0xae, 0x3d, 0x41, 0x1a, 0xe3, 0xbf,
  0x50, 0xdd, 0xa3, 0xbe, 0x53, 0xb1, 0x95, 0xbf, 0x75, 0x05, 0xad, 0xbd,
  0xbb, 0x1a, 0xed, 0xbd, 0xca, 0xfe, 0xff, 0xff, 0x10, 0x00, 0x00, 0x00,
  0x04, 0x00, 0x00, 0x00, 0x10, 0x00, 0x00, 0x00, 0x44, 0x00, 0x00, 0x00,
  0x01, 0x00, 0x00, 0x00, 0x10, 0x00, 0x00, 0x00, 0x30, 0x00, 0x00, 0x00,
  0x73, 0x65, 0x71, 0x75, 0x65, 0x6e, 0x74, 0x69, 0x61, 0x6c, 0x2f, 0x64,
  0x65, 0x6e, 0x73, 0x65, 0x2f, 0x42, 0x69, 0x61, 0x73, 0x41, 0x64, 0x64,
  0x2f, 0x52, 0x65, 0x61, 0x64, 0x56, 0x61, 0x72, 0x69, 0x61, 0x62, 0x6c,
  0x65, 0x4f, 0x70, 0x2f, 0x72, 0x65, 0x73, 0x6f, 0x75, 0x72, 0x63, 0x65,
  0x00, 0x00, 0x00, 0x00, 0x4c, 0xfe, 0xff, 0xff, 0x56, 0xff, 0xff, 0xff,
  0x04, 0x00, 0x00, 0x00, 0x40, 0x00, 0x00, 0x00, 0x78, 0x8f, 0x08, 0x3b,
  0x56, 0xfc, 0xbc, 0xbf, 0xb9, 0x87, 0xfd, 0xbe, 0xe9, 0x81, 0xe3, 0xbb,
  0x93, 0xbf, 0x02, 0xbc, 0x9e, 0x2f, 0xc7, 0xbf, 0x8a, 0x34, 0x2b, 0xc0,
  0x0c, 0x53, 0xbc, 0x3b, 0x7f, 0x55, 0xc4, 0x3d, 0xe7, 0x05, 0x8e, 0xbc,
  0xc6, 0xcb, 0x20, 0xbb, 0x00, 0xe6, 0x5b, 0xbf, 0xd5, 0x84, 0xef, 0xbf,
  0xfa, 0xa7, 0x40, 0xbe, 0x84, 0xc7, 0xcf, 0xbe, 0x0c, 0x20, 0x03, 0xc0,
  0x6e, 0xff, 0xff, 0xff, 0x10, 0x00, 0x00, 0x00, 0x03, 0x00, 0x00, 0x00,
  0x10, 0x00, 0x00, 0x00, 0x48, 0x00, 0x00, 0x00, 0x01, 0x00, 0x00, 0x00,
  0x10, 0x00, 0x00, 0x00, 0x33, 0x00, 0x00, 0x00, 0x73, 0x65, 0x71, 0x75,
  0x65, 0x6e, 0x74, 0x69, 0x61, 0x6c, 0x2f, 0x63, 0x6f, 0x6e, 0x76, 0x32,
  0x64, 0x5f, 0x31, 0x2f, 0x42, 0x69, 0x61, 0x73, 0x41, 0x64, 0x64, 0x2f,
  0x52, 0x65, 0x61, 0x64, 0x56, 0x61, 0x72, 0x69, 0x61, 0x62, 0x6c, 0x65,
  0x4f, 0x70, 0x2f, 0x72, 0x65, 0x73, 0x6f, 0x75, 0x72, 0x63, 0x65, 0x00,
  0x04, 0x00, 0x06, 0x00, 0x04, 0x00, 0x00, 0x00, 0x00, 0x00, 0x06, 0x00,
  0x08, 0x00, 0x04, 0x00, 0x06, 0x00, 0x00, 0x00, 0x04, 0x00, 0x00, 0x00,
  0x20, 0x00, 0x00, 0x00, 0xd1, 0xe7, 0x0f, 0xbf, 0x46, 0x61, 0xb9, 0xbf,
  0x25, 0xcf, 0x9b, 0xbf, 0x30, 0x23, 0xbd, 0xbe, 0xc4, 0xa4, 0xd5, 0xbf,
  0x90, 0x55, 0x3f, 0xbe, 0x9c, 0xfe, 0x00, 0xbf, 0xa8, 0xeb, 0x6f, 0xbf,
  0x00, 0x00, 0x0e, 0x00, 0x14, 0x00, 0x04, 0x00, 0x00, 0x00, 0x08, 0x00,
  0x0c, 0x00, 0x10, 0x00, 0x0e, 0x00, 0x00, 0x00, 0x10, 0x00, 0x00, 0x00,
  0x02, 0x00, 0x00, 0x00, 0x10, 0x00, 0x00, 0x00, 0x44, 0x00, 0x00, 0x00,
  0x01, 0x00, 0x00, 0x00, 0x08, 0x00, 0x00, 0x00, 0x31, 0x00, 0x00, 0x00,
  0x73, 0x65, 0x71, 0x75, 0x65, 0x6e, 0x74, 0x69, 0x61, 0x6c, 0x2f, 0x63,
  0x6f, 0x6e, 0x76, 0x32, 0x64, 0x2f, 0x42, 0x69, 0x61, 0x73, 0x41, 0x64,
  0x64, 0x2f, 0x52, 0x65, 0x61, 0x64, 0x56, 0x61, 0x72, 0x69, 0x61, 0x62,
  0x6c, 0x65, 0x4f, 0x70, 0x2f, 0x72, 0x65, 0x73, 0x6f, 0x75, 0x72, 0x63,
  0x65, 0x00, 0x00, 0x00, 0x90, 0xff, 0xff, 0xff, 0x14, 0x00, 0x18, 0x00,
  0x04, 0x00, 0x00, 0x00, 0x08, 0x00, 0x0c, 0x00, 0x10, 0x00, 0x00, 0x00,
  0x00, 0x00, 0x14, 0x00, 0x14, 0x00, 0x00, 0x00, 0x14, 0x00, 0x00, 0x00,
  0x01, 0x00, 0x00, 0x00, 0x20, 0x00, 0x00, 0x00, 0x44, 0x00, 0x00, 0x00,
  0x2c, 0x00, 0x00, 0x00, 0x04, 0x00, 0x00, 0x00, 0x01, 0x00, 0x00, 0x00,
  0x40, 0x00, 0x00, 0x00, 0x03, 0x00, 0x00, 0x00, 0x01, 0x00, 0x00, 0x00,
  0x0c, 0x00, 0x00, 0x00, 0x63, 0x6f, 0x6e, 0x76, 0x32, 0x64, 0x5f, 0x69,
  0x6e, 0x70, 0x75, 0x74, 0x00, 0x00, 0x00, 0x00, 0x04, 0x00, 0x00, 0x00,
  0xff, 0xff, 0xff, 0xff, 0x40, 0x00, 0x00, 0x00, 0x03, 0x00, 0x00, 0x00,
  0x01, 0x00, 0x00, 0x00, 0xfc, 0xff, 0xff, 0xff, 0x04, 0x00, 0x04, 0x00,
  0x04, 0x00, 0x00, 0x00
};

unsigned int model_tflite_len = 13120;// Fill the int in `src/model.cc` here
