unsigned char _content_mbed08_model_model_tflite[] = {
  0x1c, 0x00, 0x00, 0x00, 0x54, 0x46, 0x4c, 0x33, 0x14, 0x00, 0x20, 0x00,
  0x04, 0x00, 0x08, 0x00, 0x0c, 0x00, 0x10, 0x00, 0x14, 0x00, 0x00, 0x00,
  0x18, 0x00, 0x1c, 0x00, 0x14, 0x00, 0x00, 0x00, 0x03, 0x00, 0x00, 0x00,
  0x18, 0x00, 0x00, 0x00, 0x2c, 0x00, 0x00, 0x00, 0xd8, 0x00, 0x00, 0x00,
  0x2c, 0x00, 0x00, 0x00, 0x80, 0x00, 0x00, 0x00, 0x78, 0x00, 0x00, 0x00,
  0x05, 0x00, 0x00, 0x00, 0x28, 0x07, 0x00, 0x00, 0x44, 0x06, 0x00, 0x00,
  0xbc, 0x03, 0x00, 0x00, 0xf8, 0x02, 0x00, 0x00, 0xac, 0x01, 0x00, 0x00,
  0x01, 0x00, 0x00, 0x00, 0xd0, 0x00, 0x00, 0x00, 0x14, 0x00, 0x00, 0x00,
  0x98, 0x32, 0x00, 0x00, 0x94, 0x32, 0x00, 0x00, 0x8c, 0x31, 0x00, 0x00,
  0xd8, 0x30, 0x00, 0x00, 0x30, 0x30, 0x00, 0x00, 0xbc, 0x2f, 0x00, 0x00,
  0x50, 0x2f, 0x00, 0x00, 0x00, 0x13, 0x00, 0x00, 0xec, 0x11, 0x00, 0x00,
  0x10, 0x10, 0x00, 0x00, 0xb4, 0x07, 0x00, 0x00, 0x6c, 0x32, 0x00, 0x00,
  0x68, 0x32, 0x00, 0x00, 0x64, 0x32, 0x00, 0x00, 0x60, 0x32, 0x00, 0x00,
  0x5c, 0x32, 0x00, 0x00, 0x58, 0x32, 0x00, 0x00, 0x54, 0x32, 0x00, 0x00,
  0x50, 0x32, 0x00, 0x00, 0x3c, 0x00, 0x00, 0x00, 0x00, 0x00, 0x00, 0x00,
  0x01, 0x00, 0x00, 0x00, 0x0c, 0x00, 0x00, 0x00, 0x08, 0x00, 0x0c, 0x00,
  0x04, 0x00, 0x08, 0x00, 0x08, 0x00, 0x00, 0x00, 0x08, 0x00, 0x00, 0x00,
  0x13, 0x00, 0x00, 0x00, 0x13, 0x00, 0x00, 0x00, 0x6d, 0x69, 0x6e, 0x5f,
  0x72, 0x75, 0x6e, 0x74, 0x69, 0x6d, 0x65, 0x5f, 0x76, 0x65, 0x72, 0x73,
  0x69, 0x6f, 0x6e, 0x00, 0xfa, 0xce, 0xff, 0xff, 0x04, 0x00, 0x00, 0x00,
  0x10, 0x00, 0x00, 0x00, 0x31, 0x2e, 0x35, 0x2e, 0x30, 0x00, 0x00, 0x00,
  0x00, 0x00, 0x00, 0x00, 0x00, 0x00, 0x00, 0x00, 0x0f, 0x00, 0x00, 0x00,
  0x4d, 0x4c, 0x49, 0x52, 0x20, 0x43, 0x6f, 0x6e, 0x76, 0x65, 0x72, 0x74,
  0x65, 0x64, 0x2e, 0x00, 0x00, 0x00, 0x0e, 0x00, 0x18, 0x00, 0x04, 0x00,
  0x08, 0x00, 0x0c, 0x00, 0x10, 0x00, 0x14, 0x00, 0x0e, 0x00, 0x00, 0x00,
  0x14, 0x00, 0x00, 0x00, 0x5c, 0x00, 0x00, 0x00, 0x60, 0x00, 0x00, 0x00,
  0x64, 0x00, 0x00, 0x00, 0x84, 0x00, 0x00, 0x00, 0x12, 0x00, 0x00, 0x00,
  0x58, 0x31, 0x00, 0x00, 0xe8, 0x30, 0x00, 0x00, 0x44, 0x30, 0x00, 0x00,
  0x9c, 0x2f, 0x00, 0x00, 0xf4, 0x2e, 0x00, 0x00, 0x94, 0x2e, 0x00, 0x00,
  0x2c, 0x2e, 0x00, 0x00, 0xd8, 0x11, 0x00, 0x00, 0xbc, 0x10, 0x00, 0x00,
  0xe0, 0x0e, 0x00, 0x00, 0x0c, 0x06, 0x00, 0x00, 0x28, 0x05, 0x00, 0x00,
  0xe8, 0x03, 0x00, 0x00, 0x3c, 0x03, 0x00, 0x00, 0x98, 0x02, 0x00, 0x00,
  0xd4, 0x01, 0x00, 0x00, 0x10, 0x01, 0x00, 0x00, 0x84, 0x00, 0x00, 0x00,
  0x01, 0x00, 0x00, 0x00, 0x00, 0x00, 0x00, 0x00, 0x01, 0x00, 0x00, 0x00,
  0x11, 0x00, 0x00, 0x00, 0x08, 0x00, 0x00, 0x00, 0x74, 0x05, 0x00, 0x00,
  0x94, 0x04, 0x00, 0x00, 0x78, 0x03, 0x00, 0x00, 0xbc, 0x02, 0x00, 0x00,
  0x30, 0x02, 0x00, 0x00, 0x50, 0x01, 0x00, 0x00, 0xa8, 0x00, 0x00, 0x00,
  0x10, 0x00, 0x00, 0x00, 0x04, 0x00, 0x00, 0x00, 0x6d, 0x61, 0x69, 0x6e,
  0x00, 0x00, 0x00, 0x00, 0x7a, 0xff, 0xff, 0xff, 0x00, 0x00, 0x00, 0x09,
  0x04, 0x00, 0x00, 0x00, 0x1c, 0x00, 0x00, 0x00, 0x10, 0x00, 0x00, 0x00,
  0x04, 0x00, 0x00, 0x00, 0xf6, 0xcf, 0xff, 0xff, 0x00, 0x00, 0x80, 0x3f,
  0x01, 0x00, 0x00, 0x00, 0x11, 0x00, 0x00, 0x00, 0x01, 0x00, 0x00, 0x00,
  0x10, 0x00, 0x00, 0x00, 0xa0, 0xfa, 0xff, 0xff, 0x19, 0x00, 0x00, 0x00,
  0x00, 0x00, 0x00, 0x19, 0x01, 0x00, 0x00, 0x00, 0x84, 0xcf, 0xff, 0xff,
  0x14, 0x00, 0x00, 0x00, 0x12, 0x00, 0x00, 0x00, 0x18, 0x00, 0x00, 0x00,
  0x30, 0x00, 0x00, 0x00, 0x20, 0x00, 0x00, 0x00, 0x02, 0x00, 0x00, 0x00,
  0x01, 0x00, 0x00, 0x00, 0x03, 0x00, 0x00, 0x00, 0x08, 0x00, 0x00, 0x00,
  0x49, 0x64, 0x65, 0x6e, 0x74, 0x69, 0x74, 0x79, 0x00, 0x00, 0x00, 0x00,
  0x02, 0x00, 0x00, 0x00, 0xff, 0xff, 0xff, 0xff, 0x03, 0x00, 0x00, 0x00,
  0x68, 0xd0, 0xff, 0xff, 0x00, 0x00, 0x0e, 0x00, 0x18, 0x00, 0x08, 0x00,
  0x0c, 0x00, 0x10, 0x00, 0x07, 0x00, 0x14, 0x00, 0x0e, 0x00, 0x00, 0x00,
  0x00, 0x00, 0x00, 0x08, 0x03, 0x00, 0x00, 0x00, 0x18, 0x00, 0x00, 0x00,
  0x0c, 0x00, 0x00, 0x00, 0x04, 0x00, 0x00, 0x00, 0x84, 0xcf, 0xff, 0xff,
  0x01, 0x00, 0x00, 0x00, 0x10, 0x00, 0x00, 0x00, 0x03, 0x00, 0x00, 0x00,
  0x0f, 0x00, 0x00, 0x00, 0x07, 0x00, 0x00, 0x00, 0x04, 0x00, 0x00, 0x00,
  0x0c, 0xd0, 0xff, 0xff, 0x14, 0x00, 0x00, 0x00, 0x11, 0x00, 0x00, 0x00,
  0x18, 0x00, 0x00, 0x00, 0x5c, 0x00, 0x00, 0x00, 0x4c, 0x00, 0x00, 0x00,
  0x02, 0x00, 0x00, 0x00, 0x01, 0x00, 0x00, 0x00, 0x03, 0x00, 0x00, 0x00,
  0x34, 0x00, 0x00, 0x00, 0x73, 0x65, 0x71, 0x75, 0x65, 0x6e, 0x74, 0x69,
  0x61, 0x6c, 0x2f, 0x64, 0x65, 0x6e, 0x73, 0x65, 0x5f, 0x31, 0x2f, 0x4d,
  0x61, 0x74, 0x4d, 0x75, 0x6c, 0x3b, 0x73, 0x65, 0x71, 0x75, 0x65, 0x6e,
  0x74, 0x69, 0x61, 0x6c, 0x2f, 0x64, 0x65, 0x6e, 0x73, 0x65, 0x5f, 0x31,
  0x2f, 0x42, 0x69, 0x61, 0x73, 0x41, 0x64, 0x64, 0x00, 0x00, 0x00, 0x00,
  0x02, 0x00, 0x00, 0x00, 0xff, 0xff, 0xff, 0xff, 0x03, 0x00, 0x00, 0x00,
  0x0c, 0xd0, 0xff, 0xff, 0xda, 0xfc, 0xff, 0xff, 0x00, 0x00, 0x00, 0x08,
  0x03, 0x00, 0x00, 0x00, 0x24, 0x00, 0x00, 0x00, 0x18, 0x00, 0x00, 0x00,
  0x0c, 0x00, 0x00, 0x00, 0x00, 0x00, 0x06, 0x00, 0x08, 0x00, 0x07, 0x00,
  0x06, 0x00, 0x00, 0x00, 0x00, 0x00, 0x00, 0x01, 0x01, 0x00, 0x00, 0x00,
  0x0f, 0x00, 0x00, 0x00, 0x03, 0x00, 0x00, 0x00, 0x0e, 0x00, 0x00, 0x00,
  0x06, 0x00, 0x00, 0x00, 0x03, 0x00, 0x00, 0x00, 0xe8, 0xfb, 0xff, 0xff,
  0x09, 0x00, 0x00, 0x00, 0x00, 0x00, 0x00, 0x09, 0x01, 0x00, 0x00, 0x00,
  0xcc, 0xd0, 0xff, 0xff, 0x14, 0x00, 0x00, 0x00, 0x10, 0x00, 0x00, 0x00,
  0x18, 0x00, 0x00, 0x00, 0x6c, 0x00, 0x00, 0x00, 0x5c, 0x00, 0x00, 0x00,
  0x02, 0x00, 0x00, 0x00, 0x01, 0x00, 0x00, 0x00, 0x10, 0x00, 0x00, 0x00,
  0x46, 0x00, 0x00, 0x00, 0x73, 0x65, 0x71, 0x75, 0x65, 0x6e, 0x74, 0x69,
  0x61, 0x6c, 0x2f, 0x64, 0x65, 0x6e, 0x73, 0x65, 0x2f, 0x4d, 0x61, 0x74,
  0x4d, 0x75, 0x6c, 0x3b, 0x73, 0x65, 0x71, 0x75, 0x65, 0x6e, 0x74, 0x69,
  0x61, 0x6c, 0x2f, 0x64, 0x65, 0x6e, 0x73, 0x65, 0x2f, 0x52, 0x65, 0x6c,
  0x75, 0x3b, 0x73, 0x65, 0x71, 0x75, 0x65, 0x6e, 0x74, 0x69, 0x61, 0x6c,
  0x2f, 0x64, 0x65, 0x6e, 0x73, 0x65, 0x2f, 0x42, 0x69, 0x61, 0x73, 0x41,
  0x64, 0x64, 0x00, 0x00, 0x02, 0x00, 0x00, 0x00, 0xff, 0xff, 0xff, 0xff,
  0x10, 0x00, 0x00, 0x00, 0xec, 0xd1, 0xff, 0xff, 0x00, 0x00, 0x0a, 0x00,
  0x10, 0x00, 0x04, 0x00, 0x08, 0x00, 0x0c, 0x00, 0x0a, 0x00, 0x00, 0x00,
  0x02, 0x00, 0x00, 0x00, 0x10, 0x00, 0x00, 0x00, 0x04, 0x00, 0x00, 0x00,
  0x01, 0x00, 0x00, 0x00, 0x0e, 0x00, 0x00, 0x00, 0x02, 0x00, 0x00, 0x00,
  0x0d, 0x00, 0x00, 0x00, 0x05, 0x00, 0x00, 0x00, 0xa8, 0xfc, 0xff, 0xff,
  0x16, 0x00, 0x00, 0x00, 0x00, 0x00, 0x00, 0x16, 0x01, 0x00, 0x00, 0x00,
  0x8c, 0xd1, 0xff, 0xff, 0x14, 0x00, 0x00, 0x00, 0x0f, 0x00, 0x00, 0x00,
  0x18, 0x00, 0x00, 0x00, 0x40, 0x00, 0x00, 0x00, 0x30, 0x00, 0x00, 0x00,
  0x02, 0x00, 0x00, 0x00, 0x01, 0x00, 0x00, 0x00, 0x70, 0x00, 0x00, 0x00,
  0x1a, 0x00, 0x00, 0x00, 0x73, 0x65, 0x71, 0x75, 0x65, 0x6e, 0x74, 0x69,
  0x61, 0x6c, 0x2f, 0x66, 0x6c, 0x61, 0x74, 0x74, 0x65, 0x6e, 0x2f, 0x52,
  0x65, 0x73, 0x68, 0x61, 0x70, 0x65, 0x00, 0x00, 0x02, 0x00, 0x00, 0x00,
  0xff, 0xff, 0xff, 0xff, 0x70, 0x00, 0x00, 0x00, 0x70, 0xd1, 0xff, 0xff,
  0x3e, 0xfe, 0xff, 0xff, 0x00, 0x00, 0x00, 0x05, 0x01, 0x00, 0x00, 0x00,
  0x38, 0x00, 0x00, 0x00, 0x2c, 0x00, 0x00, 0x00, 0x14, 0x00, 0x00, 0x00,
  0x00, 0x00, 0x0e, 0x00, 0x14, 0x00, 0x00, 0x00, 0x10, 0x00, 0x0c, 0x00,
  0x08, 0x00, 0x04, 0x00, 0x0e, 0x00, 0x00, 0x00, 0x03, 0x00, 0x00, 0x00,
  0x01, 0x00, 0x00, 0x00, 0x03, 0x00, 0x00, 0x00, 0x01, 0x00, 0x00, 0x00,
  0x01, 0x00, 0x00, 0x00, 0x0d, 0x00, 0x00, 0x00, 0x01, 0x00, 0x00, 0x00,
  0x0c, 0x00, 0x00, 0x00, 0x2c, 0xd2, 0xff, 0xff, 0x14, 0x00, 0x00, 0x00,
  0x0e, 0x00, 0x00, 0x00, 0x20, 0x00, 0x00, 0x00, 0x58, 0x00, 0x00, 0x00,
  0x40, 0x00, 0x00, 0x00, 0x04, 0x00, 0x00, 0x00, 0x01, 0x00, 0x00, 0x00,
  0x07, 0x00, 0x00, 0x00, 0x01, 0x00, 0x00, 0x00, 0x10, 0x00, 0x00, 0x00,
  0x22, 0x00, 0x00, 0x00, 0x73, 0x65, 0x71, 0x75, 0x65, 0x6e, 0x74, 0x69,
  0x61, 0x6c, 0x2f, 0x6d, 0x61, 0x78, 0x5f, 0x70, 0x6f, 0x6f, 0x6c, 0x69,
  0x6e, 0x67, 0x32, 0x64, 0x5f, 0x31, 0x2f, 0x4d, 0x61, 0x78, 0x50, 0x6f,
  0x6f, 0x6c, 0x00, 0x00, 0x04, 0x00, 0x00, 0x00, 0xff, 0xff, 0xff, 0xff,
  0x07, 0x00, 0x00, 0x00, 0x01, 0x00, 0x00, 0x00, 0x10, 0x00, 0x00, 0x00,
  0x28, 0xd2, 0xff, 0xff, 0x1a, 0xfe, 0xff, 0xff, 0x00, 0x00, 0x00, 0x01,
  0x24, 0x00, 0x00, 0x00, 0x18, 0x00, 0x00, 0x00, 0x04, 0x00, 0x00, 0x00,
  0x0c, 0xfe, 0xff, 0xff, 0x01, 0x00, 0x00, 0x00, 0x01, 0x00, 0x00, 0x00,
  0x00, 0x00, 0x00, 0x01, 0x01, 0x00, 0x00, 0x00, 0x0c, 0x00, 0x00, 0x00,
  0x03, 0x00, 0x00, 0x00, 0x0b, 0x00, 0x00, 0x00, 0x09, 0x00, 0x00, 0x00,
  0x02, 0x00, 0x00, 0x00, 0xd4, 0xd2, 0xff, 0xff, 0x14, 0x00, 0x00, 0x00,
  0x0d, 0x00, 0x00, 0x00, 0x20, 0x00, 0x00, 0x00, 0xb8, 0x00, 0x00, 0x00,
  0xa0, 0x00, 0x00, 0x00, 0x04, 0x00, 0x00, 0x00, 0x01, 0x00, 0x00, 0x00,
  0x15, 0x00, 0x00, 0x00, 0x01, 0x00, 0x00, 0x00, 0x10, 0x00, 0x00, 0x00,
  0x83, 0x00, 0x00, 0x00, 0x73, 0x65, 0x71, 0x75, 0x65, 0x6e, 0x74, 0x69,
  0x61, 0x6c, 0x2f, 0x63, 0x6f, 0x6e, 0x76, 0x32, 0x64, 0x5f, 0x31, 0x2f,
  0x52, 0x65, 0x6c, 0x75, 0x3b, 0x73, 0x65, 0x71, 0x75, 0x65, 0x6e, 0x74,
  0x69, 0x61, 0x6c, 0x2f, 0x63, 0x6f, 0x6e, 0x76, 0x32, 0x64, 0x5f, 0x31,
  0x2f, 0x42, 0x69, 0x61, 0x73, 0x41, 0x64, 0x64, 0x3b, 0x73, 0x65, 0x71,
  0x75, 0x65, 0x6e, 0x74, 0x69, 0x61, 0x6c, 0x2f, 0x63, 0x6f, 0x6e, 0x76,
  0x32, 0x64, 0x5f, 0x31, 0x2f, 0x43, 0x6f, 0x6e, 0x76, 0x32, 0x44, 0x3b,
  0x73, 0x65, 0x71, 0x75, 0x65, 0x6e, 0x74, 0x69, 0x61, 0x6c, 0x2f, 0x63,
  0x6f, 0x6e, 0x76, 0x32, 0x64, 0x5f, 0x31, 0x2f, 0x42, 0x69, 0x61, 0x73,
  0x41, 0x64, 0x64, 0x2f, 0x52, 0x65, 0x61, 0x64, 0x56, 0x61, 0x72, 0x69,
  0x61, 0x62, 0x6c, 0x65, 0x4f, 0x70, 0x2f, 0x72, 0x65, 0x73, 0x6f, 0x75,
  0x72, 0x63, 0x65, 0x00, 0x04, 0x00, 0x00, 0x00, 0xff, 0xff, 0xff, 0xff,
  0x15, 0x00, 0x00, 0x00, 0x01, 0x00, 0x00, 0x00, 0x10, 0x00, 0x00, 0x00,
  0x40, 0xd4, 0xff, 0xff, 0x00, 0x00, 0x0e, 0x00, 0x1a, 0x00, 0x08, 0x00,
  0x0c, 0x00, 0x10, 0x00, 0x07, 0x00, 0x14, 0x00, 0x0e, 0x00, 0x00, 0x00,
  0x00, 0x00, 0x00, 0x05, 0x01, 0x00, 0x00, 0x00, 0x3c, 0x00, 0x00, 0x00,
  0x30, 0x00, 0x00, 0x00, 0x14, 0x00, 0x00, 0x00, 0x00, 0x00, 0x0e, 0x00,
  0x18, 0x00, 0x17, 0x00, 0x10, 0x00, 0x0c, 0x00, 0x08, 0x00, 0x04, 0x00,
  0x0e, 0x00, 0x00, 0x00, 0x03, 0x00, 0x00, 0x00, 0x03, 0x00, 0x00, 0x00,
  0x03, 0x00, 0x00, 0x00, 0x03, 0x00, 0x00, 0x00, 0x00, 0x00, 0x00, 0x01,
  0x01, 0x00, 0x00, 0x00, 0x0b, 0x00, 0x00, 0x00, 0x01, 0x00, 0x00, 0x00,
  0x0a, 0x00, 0x00, 0x00, 0x2c, 0xff, 0xff, 0xff, 0x11, 0x00, 0x00, 0x00,
  0x00, 0x00, 0x00, 0x11, 0x01, 0x00, 0x00, 0x00, 0x10, 0xd4, 0xff, 0xff,
  0x14, 0x00, 0x00, 0x00, 0x0c, 0x00, 0x00, 0x00, 0x20, 0x00, 0x00, 0x00,
  0x58, 0x00, 0x00, 0x00, 0x40, 0x00, 0x00, 0x00, 0x04, 0x00, 0x00, 0x00,
  0x01, 0x00, 0x00, 0x00, 0x15, 0x00, 0x00, 0x00, 0x01, 0x00, 0x00, 0x00,
  0x08, 0x00, 0x00, 0x00, 0x20, 0x00, 0x00, 0x00, 0x73, 0x65, 0x71, 0x75,
  0x65, 0x6e, 0x74, 0x69, 0x61, 0x6c, 0x2f, 0x6d, 0x61, 0x78, 0x5f, 0x70,
  0x6f, 0x6f, 0x6c, 0x69, 0x6e, 0x67, 0x32, 0x64, 0x2f, 0x4d, 0x61, 0x78,
  0x50, 0x6f, 0x6f, 0x6c, 0x00, 0x00, 0x00, 0x00, 0x04, 0x00, 0x00, 0x00,
  0xff, 0xff, 0xff, 0xff, 0x15, 0x00, 0x00, 0x00, 0x01, 0x00, 0x00, 0x00,
  0x08, 0x00, 0x00, 0x00, 0x1c, 0xd5, 0xff, 0xff, 0x00, 0x00, 0x0e, 0x00,
  0x14, 0x00, 0x00, 0x00, 0x08, 0x00, 0x0c, 0x00, 0x07, 0x00, 0x10, 0x00,
  0x0e, 0x00, 0x00, 0x00, 0x00, 0x00, 0x00, 0x01, 0x30, 0x00, 0x00, 0x00,
  0x24, 0x00, 0x00, 0x00, 0x10, 0x00, 0x00, 0x00, 0x0c, 0x00, 0x10, 0x00,
  0x00, 0x00, 0x04, 0x00, 0x08, 0x00, 0x0f, 0x00, 0x0c, 0x00, 0x00, 0x00,
  0x01, 0x00, 0x00, 0x00, 0x01, 0x00, 0x00, 0x00, 0x00, 0x00, 0x00, 0x01,
  0x01, 0x00, 0x00, 0x00, 0x0a, 0x00, 0x00, 0x00, 0x03, 0x00, 0x00, 0x00,
  0x00, 0x00, 0x00, 0x00, 0x08, 0x00, 0x00, 0x00, 0x01, 0x00, 0x00, 0x00,
  0x0c, 0x00, 0x10, 0x00, 0x0b, 0x00, 0x00, 0x00, 0x0c, 0x00, 0x04, 0x00,
  0x0c, 0x00, 0x00, 0x00, 0x03, 0x00, 0x00, 0x00, 0x00, 0x00, 0x00, 0x03,
  0x01, 0x00, 0x00, 0x00, 0xf0, 0xd4, 0xff, 0xff, 0x14, 0x00, 0x00, 0x00,
  0x0b, 0x00, 0x00, 0x00, 0x20, 0x00, 0x00, 0x00, 0xb0, 0x00, 0x00, 0x00,
  0x98, 0x00, 0x00, 0x00, 0x04, 0x00, 0x00, 0x00, 0x01, 0x00, 0x00, 0x00,
  0x40, 0x00, 0x00, 0x00, 0x03, 0x00, 0x00, 0x00, 0x08, 0x00, 0x00, 0x00,
  0x7b, 0x00, 0x00, 0x00, 0x73, 0x65, 0x71, 0x75, 0x65, 0x6e, 0x74, 0x69,
  0x61, 0x6c, 0x2f, 0x63, 0x6f, 0x6e, 0x76, 0x32, 0x64, 0x2f, 0x52, 0x65,
  0x6c, 0x75, 0x3b, 0x73, 0x65, 0x71, 0x75, 0x65, 0x6e, 0x74, 0x69, 0x61,
  0x6c, 0x2f, 0x63, 0x6f, 0x6e, 0x76, 0x32, 0x64, 0x2f, 0x42, 0x69, 0x61,
  0x73, 0x41, 0x64, 0x64, 0x3b, 0x73, 0x65, 0x71, 0x75, 0x65, 0x6e, 0x74,
  0x69, 0x61, 0x6c, 0x2f, 0x63, 0x6f, 0x6e, 0x76, 0x32, 0x64, 0x2f, 0x43,
  0x6f, 0x6e, 0x76, 0x32, 0x44, 0x3b, 0x73, 0x65, 0x71, 0x75, 0x65, 0x6e,
  0x74, 0x69, 0x61, 0x6c, 0x2f, 0x63, 0x6f, 0x6e, 0x76, 0x32, 0x64, 0x2f,
  0x42, 0x69, 0x61, 0x73, 0x41, 0x64, 0x64, 0x2f, 0x52, 0x65, 0x61, 0x64,
  0x56, 0x61, 0x72, 0x69, 0x61, 0x62, 0x6c, 0x65, 0x4f, 0x70, 0x2f, 0x72,
  0x65, 0x73, 0x6f, 0x75, 0x72, 0x63, 0x65, 0x00, 0x04, 0x00, 0x00, 0x00,
  0xff, 0xff, 0xff, 0xff, 0x40, 0x00, 0x00, 0x00, 0x03, 0x00, 0x00, 0x00,
  0x08, 0x00, 0x00, 0x00, 0x44, 0xd5, 0xff, 0xff, 0x4e, 0xd6, 0xff, 0xff,
  0x04, 0x00, 0x00, 0x00, 0x00, 0x08, 0x00, 0x00, 0xb9, 0xbc, 0xf7, 0xbd,
  0xb2, 0xa5, 0xe8, 0x3e, 0xbb, 0x85, 0x70, 0xbd, 0xb8, 0xb4, 0xd9, 0x3c,
  0x92, 0x20, 0x2e, 0xbe, 0xa5, 0xfa, 0x75, 0x3e, 0x16, 0x10, 0xbf, 0x3c,
  0x69, 0xaf, 0xd1, 0xbe, 0xab, 0xd4, 0x76, 0xbe, 0x56, 0x6d, 0x24, 0xbe,
  0xba, 0x72, 0xb6, 0xbd, 0x00, 0xa7, 0x0b, 0x3e, 0x03, 0x2f, 0x24, 0x3e,
  0xcd, 0xc6, 0x4c, 0x3e, 0x41, 0x33, 0xb3, 0x3d, 0x18, 0xcc, 0xd3, 0xbe,
  0x8b, 0xa8, 0x11, 0xbd, 0x04, 0xf3, 0x0f, 0x3e, 0x96, 0xe2, 0x10, 0xbd,
  0x90, 0x8c, 0x40, 0x3e, 0x9d, 0xae, 0xc2, 0x3d, 0xd6, 0x45, 0x37, 0x3d,
  0x88, 0x4d, 0x42, 0xbd, 0x77, 0x1f, 0xa1, 0xbe, 0x4a, 0xea, 0x19, 0xbd,
  0x97, 0xc2, 0x94, 0x3e, 0xa6, 0x5d, 0x12, 0xbe, 0x26, 0x9c, 0x9d, 0xbc,
  0x42, 0x3e, 0x92, 0x3c, 0xa3, 0x6c, 0x84, 0x3d, 0x40, 0x8b, 0x1d, 0xbe,
  0x12, 0x13, 0x33, 0xbe, 0x7b, 0x5e, 0xb4, 0xbd, 0xe4, 0xd0, 0x45, 0xbe,
  0x42, 0x89, 0x6b, 0xbd, 0x06, 0xf5, 0x3c, 0xbe, 0x82, 0xbf, 0x18, 0xbe,
  0xa5, 0x08, 0x26, 0x3e, 0xef, 0x35, 0x35, 0xbe, 0x05, 0xae, 0xcb, 0xbd,
  0x75, 0x3c, 0x80, 0xbd, 0x1f, 0x42, 0x1f, 0xbe, 0x92, 0x53, 0x91, 0xbc,
  0x5e, 0x22, 0xe1, 0xbd, 0xba, 0x7a, 0x1d, 0xbe, 0x2b, 0xc7, 0x4e, 0x3e,
  0xd0, 0xf4, 0x37, 0xbe, 0x2a, 0xcb, 0xba, 0xbd, 0xa6, 0xcf, 0xc4, 0xbc,
  0x65, 0x6c, 0x34, 0x3d, 0x2f, 0xd4, 0x84, 0xbd, 0x77, 0x81, 0x36, 0x3e,
  0x79, 0x4f, 0x97, 0xbb, 0xe4, 0xf8, 0xe7, 0xbe, 0x8b, 0xaa, 0x92, 0x3c,
  0xbb, 0xbe, 0xb6, 0xbd, 0xfc, 0x5e, 0x40, 0x3e, 0xfe, 0x83, 0xa1, 0x3c,
  0x72, 0xf5, 0x02, 0xbe, 0x31, 0x01, 0x7c, 0x3e, 0x8d, 0x24, 0x3d, 0x3e,
  0x6d, 0x7e, 0x35, 0x3c, 0x00, 0xcf, 0xa7, 0x3e, 0xe5, 0xfe, 0xc8, 0x3d,
  0x66, 0x65, 0x06, 0xbe, 0xde, 0xc8, 0xd1, 0x3e, 0xd8, 0x3b, 0xae, 0x3c,
  0x4e, 0x58, 0x29, 0x3e, 0xa2, 0xbd, 0x20, 0xbe, 0x5f, 0x8d, 0xd4, 0x3d,
  0xb6, 0x3a, 0x54, 0xbe, 0x88, 0x91, 0xf9, 0xbe, 0x53, 0xbb, 0xf1, 0xbd,
  0x37, 0xe1, 0x3a, 0xbd, 0x00, 0x52, 0x9e, 0x3e, 0xbb, 0x32, 0x6a, 0x3e,
  0x7b, 0x34, 0x0b, 0xbe, 0x18, 0x84, 0x20, 0x3e, 0x80, 0x1c, 0x78, 0x3d,
  0x34, 0xfd, 0x60, 0xbe, 0x41, 0xfd, 0xd5, 0xbd, 0x47, 0xa5, 0x9f, 0xbc,
  0xf1, 0x48, 0xb1, 0x3a, 0x55, 0x67, 0x8f, 0xbd, 0x67, 0x6c, 0xa1, 0x3e,
  0xfe, 0x5f, 0x59, 0xbc, 0x71, 0x8a, 0x21, 0xbd, 0x30, 0xa7, 0xc5, 0xbd,
  0x08, 0xaf, 0x87, 0x3d, 0x3a, 0xeb, 0x54, 0x3d, 0xc7, 0xfb, 0xb1, 0xbd,
  0xea, 0xa1, 0xe1, 0xbd, 0xcd, 0xe2, 0x3a, 0x3d, 0x00, 0xe7, 0x2d, 0x3e,
  0x74, 0x56, 0x72, 0xbe, 0x20, 0x54, 0x83, 0xbd, 0x20, 0x97, 0xec, 0xbd,
  0x2c, 0xed, 0xa2, 0x3e, 0xfb, 0xfc, 0xe6, 0xbd, 0x12, 0x57, 0xef, 0xbe,
  0xff, 0x93, 0x85, 0xbe, 0xe9, 0x6b, 0x36, 0x3e, 0xe0, 0x95, 0xfb, 0xbe,
  0xec, 0x2d, 0x97, 0xbe, 0x09, 0x6b, 0x09, 0xbe, 0x43, 0xcd, 0x44, 0x3e,
  0x39, 0xde, 0x3a, 0x3d, 0xdb, 0x2b, 0x88, 0x3d, 0x6a, 0x48, 0x30, 0xbf,
  0x1e, 0xc5, 0xec, 0x3e, 0x44, 0x4d, 0x61, 0xbe, 0xd5, 0x58, 0xf7, 0xbe,
  0x55, 0xd6, 0xba, 0xbe, 0xb5, 0xb4, 0x9b, 0xbe, 0x56, 0xb6, 0x65, 0xbd,
  0xce, 0xe2, 0x69, 0x3d, 0x55, 0xbb, 0xc0, 0x3e, 0x3f, 0x20, 0x22, 0xbf,
  0xb5, 0x74, 0xe1, 0x3d, 0xe6, 0xb2, 0x76, 0xbe, 0xf2, 0xbb, 0xa6, 0xbd,
  0x65, 0x75, 0x08, 0xbe, 0x0d, 0x31, 0xce, 0x3c, 0x90, 0x53, 0x65, 0x3e,
  0xfc, 0x04, 0x0b, 0x3d, 0xfc, 0xd1, 0x8f, 0xbe, 0x7b, 0x32, 0x04, 0x3e,
  0xae, 0xe6, 0xa2, 0xbd, 0xcb, 0x6f, 0xd4, 0x3e, 0xd1, 0x33, 0x18, 0x3f,
  0x07, 0xfc, 0xbf, 0xbe, 0xd3, 0x06, 0xfe, 0xbd, 0x91, 0x9c, 0x30, 0xbd,
  0xfb, 0x43, 0x9c, 0x3e, 0x8a, 0x08, 0x03, 0x3e, 0x8b, 0x1b, 0x06, 0x3e,
  0x42, 0xda, 0x02, 0xbe, 0xab, 0x83, 0x2d, 0xbe, 0xe6, 0x77, 0xb0, 0xbe,
  0x4c, 0x0e, 0xa3, 0xbe, 0x93, 0xd3, 0x00, 0xbe, 0xbe, 0xf0, 0x0f, 0xbe,
  0x1b, 0xb1, 0x0d, 0xbe, 0x50, 0x32, 0x5a, 0x3d, 0xbf, 0x3f, 0xca, 0xbd,
  0xf0, 0xe5, 0xdf, 0xbd, 0x4d, 0x5a, 0xd0, 0xbc, 0xe4, 0x58, 0xaa, 0xbd,
  0x45, 0xa0, 0x59, 0xbd, 0xdb, 0x71, 0xc1, 0x3c, 0x36, 0x5b, 0x15, 0xbe,
  0xe8, 0x09, 0x80, 0xbd, 0x67, 0x9a, 0x04, 0xbe, 0xa8, 0x5f, 0xc0, 0xbd,
  0xec, 0xf9, 0xb8, 0xbc, 0xb0, 0xc9, 0xaf, 0x3b, 0xa3, 0xf4, 0x08, 0x3c,
  0xac, 0x55, 0xa8, 0x3d, 0x08, 0x2f, 0x42, 0xbe, 0x9a, 0x79, 0xef, 0xbd,
  0x13, 0x05, 0x7d, 0xbe, 0x84, 0xff, 0x23, 0xbe, 0x73, 0x79, 0xde, 0xbd,
  0xa0, 0xce, 0x7f, 0xbe, 0x1e, 0x16, 0x2a, 0xbe, 0x88, 0xd5, 0x73, 0xbe,
  0xaa, 0x69, 0xeb, 0xbd, 0x45, 0x52, 0x45, 0xbe, 0x4c, 0x85, 0x31, 0xbe,
  0x96, 0x3f, 0x0d, 0xbe, 0xfa, 0x4d, 0xde, 0xbb, 0xfd, 0xb2, 0x4a, 0xbe,
  0x8a, 0x70, 0x21, 0xbd, 0x4a, 0xe8, 0xb4, 0xbd, 0x76, 0x8b, 0x9e, 0x3d,
  0xdc, 0xf0, 0xa0, 0x3e, 0x5c, 0xfa, 0x64, 0xbe, 0xa5, 0xfc, 0x87, 0xbe,
  0xe6, 0x30, 0x8c, 0xbb, 0x4e, 0xeb, 0xe0, 0xbc, 0x41, 0x0d, 0x37, 0xbd,
  0xe9, 0xcd, 0xe6, 0xbd, 0x04, 0x0e, 0x67, 0xbd, 0x1e, 0x6c, 0x20, 0x3e,
  0xd2, 0xff, 0x54, 0xbe, 0xda, 0xfa, 0x69, 0xbe, 0xe0, 0xf1, 0x9d, 0x3c,
  0xb3, 0x21, 0xd8, 0xbd, 0x8e, 0xcb, 0x04, 0xbc, 0xa7, 0x9e, 0xff, 0x3b,
  0xef, 0x44, 0xb0, 0x3d, 0xf4, 0x2c, 0xa1, 0x3b, 0x39, 0x8b, 0x2c, 0x3c,
  0x16, 0x4b, 0x85, 0xbc, 0x80, 0x95, 0xce, 0xbc, 0x4b, 0x32, 0x72, 0xbe,
  0x15, 0x3a, 0xa8, 0x3d, 0xa0, 0x7c, 0xbb, 0x3e, 0x67, 0x04, 0x86, 0x3d,
  0xf3, 0xc9, 0xf5, 0x3c, 0x65, 0xfa, 0xad, 0xbd, 0xfa, 0x0c, 0x04, 0x3e,
  0x19, 0xb9, 0xc1, 0xbc, 0x1d, 0xea, 0x37, 0x3e, 0xb5, 0xec, 0x99, 0xbd,
  0x45, 0x9f, 0x2f, 0xbe, 0x35, 0x4a, 0xf1, 0x3c, 0x9a, 0x1b, 0x35, 0x3e,
  0x88, 0xa4, 0x23, 0xbd, 0x26, 0x24, 0xdc, 0xbd, 0x85, 0x5c, 0x82, 0x3e,
  0xc9, 0xe4, 0x00, 0x3b, 0x12, 0x79, 0xca, 0x3d, 0xc7, 0x91, 0xd8, 0x3d,
  0x2e, 0xad, 0xf4, 0xbd, 0x24, 0x33, 0x67, 0x3d, 0x9c, 0xff, 0x02, 0x3d,
  0xec, 0x15, 0xfc, 0xbc, 0x2b, 0xe6, 0x6c, 0xbc, 0xfd, 0x98, 0xce, 0xbd,
  0x7b, 0x53, 0xec, 0x3d, 0x04, 0xf5, 0x72, 0xbd, 0x56, 0x4c, 0x06, 0x3e,
  0x12, 0xb6, 0x5c, 0xbd, 0x44, 0x06, 0xf0, 0x3c, 0xfa, 0xb9, 0xbf, 0x3e,
  0x65, 0x5b, 0x19, 0xbd, 0x3d, 0x15, 0x36, 0xbd, 0x59, 0x2d, 0x02, 0x3e,
  0x88, 0xee, 0x49, 0x3e, 0xbc, 0x40, 0x25, 0x3e, 0x20, 0xc0, 0x04, 0xbe,
  0x2e, 0x44, 0x90, 0xbe, 0x15, 0xf0, 0x79, 0xbe, 0xa6, 0x1b, 0x2d, 0x3d,
  0x41, 0x7c, 0xa8, 0xbe, 0x49, 0xe3, 0xb5, 0xbe, 0x26, 0x3e, 0xaf, 0xbd,
  0x37, 0x88, 0x3d, 0xbe, 0x2d, 0x48, 0x0b, 0xbe, 0xdf, 0x7d, 0x40, 0xbe,
  0xfd, 0xee, 0xb2, 0xbc, 0xa9, 0x38, 0x47, 0x3d, 0x14, 0x03, 0xbc, 0x3d,
  0xa8, 0xb1, 0x19, 0xbf, 0xf6, 0x4c, 0x68, 0xbd, 0x9f, 0xf7, 0x2e, 0x3d,
  0xa4, 0x42, 0x40, 0xbe, 0x76, 0x64, 0x8b, 0x3e, 0x43, 0x9c, 0x1a, 0x3b,
  0xcc, 0x5c, 0xe6, 0x3c, 0x4c, 0xb7, 0xb2, 0x3d, 0x54, 0xd2, 0x0c, 0xbf,
  0x2e, 0x02, 0x32, 0xbe, 0xed, 0xb5, 0x8f, 0xbd, 0x89, 0x7d, 0x43, 0xbe,
  0x0a, 0x01, 0x91, 0xbe, 0xfc, 0x1f, 0x0b, 0x3f, 0xce, 0x56, 0x0a, 0xbb,
  0x4c, 0x48, 0x29, 0xbf, 0xf3, 0xc9, 0x2e, 0xbf, 0xc3, 0x3f, 0xa6, 0x3e,
  0xaf, 0xc4, 0x5e, 0xbf, 0x68, 0x16, 0x26, 0xbf, 0xc6, 0xcd, 0xcd, 0xbe,
  0xaf, 0xdd, 0x3a, 0xbd, 0x81, 0x98, 0x88, 0x3e, 0x22, 0xfa, 0x33, 0x3e,
  0xf8, 0xc6, 0x08, 0xbe, 0x1a, 0x70, 0x4a, 0xbb, 0xe7, 0x22, 0xfc, 0x3d,
  0x9c, 0x06, 0x2f, 0xbf, 0xd7, 0xcd, 0x4b, 0xbe, 0x66, 0xe4, 0x9b, 0xbd,
  0x47, 0x97, 0x2d, 0xbd, 0xe2, 0x20, 0x33, 0x3e, 0x69, 0xdc, 0x80, 0x3e,
  0xa0, 0xc1, 0x86, 0xbe, 0x05, 0xf5, 0xc3, 0x3e, 0xd0, 0x34, 0x05, 0xbd,
  0x8d, 0x4c, 0x0a, 0x3d, 0xdd, 0xca, 0x2d, 0xbe, 0x03, 0x57, 0x15, 0xbe,
  0xaf, 0x37, 0xb6, 0xbb, 0xdb, 0x5e, 0x83, 0xbd, 0xcd, 0x84, 0x80, 0xbe,
  0x10, 0x51, 0x52, 0xbe, 0x65, 0x13, 0x2f, 0x3b, 0x89, 0xe6, 0x1f, 0xbe,
  0xf7, 0x5b, 0xde, 0xbe, 0xc3, 0x4e, 0x89, 0xbb, 0xbb, 0x6a, 0x87, 0xbe,
  0xa9, 0xf9, 0x40, 0xbe, 0x10, 0x49, 0x60, 0xbe, 0x9f, 0x7a, 0x43, 0xbe,
  0x5e, 0x43, 0x8d, 0x3b, 0xa6, 0x12, 0x0c, 0xbd, 0xe9, 0x11, 0x90, 0x3b,
  0x93, 0x71, 0x3e, 0xbd, 0x12, 0xc0, 0xdd, 0xbd, 0x20, 0xb1, 0x57, 0xbe,
  0xda, 0x48, 0x0a, 0x3f, 0xeb, 0xdb, 0x00, 0xbe, 0xa9, 0x17, 0x35, 0xbd,
  0xd6, 0x52, 0xc7, 0xbd, 0xdf, 0x4c, 0x30, 0x3e, 0x18, 0x7f, 0x4d, 0xbc,
  0x69, 0xce, 0x29, 0xbe, 0xff, 0xc2, 0xe8, 0xbd, 0x43, 0xce, 0xb0, 0x3b,
  0x62, 0x52, 0x41, 0x3d, 0x0b, 0xe2, 0x9d, 0xbd, 0x5d, 0xd2, 0x44, 0xbe,
  0xe9, 0xf4, 0x99, 0xbe, 0xc1, 0x18, 0xe8, 0xbd, 0x83, 0x3e, 0xa1, 0xbe,
  0x17, 0x45, 0xa1, 0xbe, 0x24, 0xee, 0x62, 0xbe, 0x01, 0x9e, 0x6f, 0xbe,
  0x16, 0x9d, 0x05, 0xbe, 0x9b, 0xec, 0xac, 0x3e, 0xcb, 0x0d, 0x85, 0x3e,
  0x2c, 0xe0, 0x99, 0xbe, 0x4e, 0x1d, 0x3f, 0x3d, 0x86, 0x27, 0x36, 0x3d,
  0x44, 0xd6, 0x2e, 0xbe, 0x99, 0x12, 0x32, 0x3d, 0xba, 0x8d, 0x3d, 0x3e,
  0xcf, 0x75, 0xc0, 0xbc, 0x8d, 0xc4, 0x90, 0xbd, 0xc9, 0x6d, 0x29, 0xbf,
  0x02, 0x3a, 0x51, 0xbe, 0x22, 0x24, 0x3c, 0xbd, 0x71, 0xc4, 0x9a, 0x3c,
  0x5d, 0xf6, 0x01, 0x3e, 0x52, 0x81, 0x60, 0xbd, 0x59, 0x80, 0x7f, 0xbe,
  0x95, 0x87, 0x32, 0xbe, 0x02, 0xc4, 0xcf, 0xbd, 0xd9, 0x06, 0xc0, 0xbe,
  0xc1, 0xa8, 0x0d, 0xbe, 0x8c, 0x4d, 0x9e, 0x3e, 0xc0, 0x10, 0x9e, 0xbe,
  0x7a, 0x25, 0xc0, 0xbd, 0x96, 0xa7, 0x9c, 0xbe, 0x9b, 0xb5, 0x79, 0xbe,
  0xbe, 0x7c, 0x13, 0xbc, 0xfb, 0x96, 0x87, 0x3c, 0xc4, 0x8e, 0x24, 0xbe,
  0xde, 0x14, 0x97, 0x3e, 0x7f, 0x77, 0x8e, 0xbe, 0x23, 0x1c, 0x09, 0xbe,
  0x70, 0x91, 0x2b, 0xbe, 0xd7, 0x28, 0x5e, 0xbe, 0x68, 0x10, 0xda, 0xbe,
  0x05, 0x3b, 0x61, 0xbe, 0x79, 0x52, 0x20, 0xbe, 0xe2, 0xb4, 0xbe, 0xbe,
  0x8f, 0xd4, 0x53, 0xbe, 0x97, 0xd0, 0xd8, 0xbd, 0x8f, 0xf6, 0x35, 0x3d,
  0x8b, 0x6e, 0xb8, 0x3d, 0x53, 0xaf, 0xda, 0xbe, 0x93, 0xa4, 0x1a, 0xbd,
  0xa6, 0x00, 0x88, 0x3b, 0x97, 0x62, 0xdd, 0xbd, 0xd6, 0xf1, 0x02, 0xbe,
  0x67, 0x7e, 0x73, 0x3d, 0xf5, 0x11, 0x1b, 0x3e, 0x5d, 0x5c, 0x01, 0x3f,
  0xd1, 0xda, 0x85, 0xbe, 0x07, 0x7f, 0x39, 0xbd, 0xa3, 0xb7, 0x70, 0x3d,
  0x1e, 0x44, 0xe0, 0x3d, 0xd2, 0x2a, 0xb0, 0x3d, 0x06, 0x26, 0x81, 0x3b,
  0xe5, 0x81, 0x88, 0x3b, 0x50, 0x5c, 0x4b, 0xbc, 0xd3, 0xeb, 0x67, 0xbe,
  0x9f, 0x27, 0x5d, 0xbe, 0xda, 0x43, 0xb6, 0xbd, 0x4b, 0x03, 0x25, 0x3e,
  0xad, 0x79, 0x00, 0x3e, 0xae, 0x58, 0x87, 0x3e, 0x6f, 0x7e, 0x81, 0x3e,
  0x4a, 0xbc, 0x26, 0x3f, 0x01, 0xa7, 0xf0, 0xbd, 0x4d, 0xa9, 0x4a, 0x3e,
  0x04, 0x3d, 0x99, 0xbc, 0xbc, 0x5d, 0x65, 0x3e, 0xbf, 0xf3, 0x0a, 0x3c,
  0x4b, 0x91, 0x3a, 0xbb, 0xe3, 0xc6, 0x94, 0xbd, 0x91, 0xbb, 0x2b, 0xbc,
  0x13, 0x65, 0xfb, 0xbd, 0x2b, 0x78, 0xec, 0x3d, 0xfc, 0x10, 0x92, 0xbc,
  0xc1, 0xa4, 0xd2, 0xbc, 0xea, 0x0f, 0x3b, 0x3e, 0x49, 0xf5, 0x38, 0x3e,
  0x2f, 0x44, 0x3d, 0xbd, 0xf4, 0xfe, 0x71, 0xbe, 0x5f, 0x35, 0x15, 0xbe,
  0x8b, 0x69, 0x55, 0xbe, 0x77, 0x3e, 0xef, 0xbd, 0x4f, 0x40, 0xba, 0xbd,
  0x6d, 0x82, 0xde, 0xbd, 0xea, 0x03, 0x43, 0xbd, 0x2b, 0x75, 0x15, 0xbe,
  0xb0, 0xc0, 0xb9, 0xbe, 0x11, 0x1b, 0xb4, 0x3c, 0x17, 0x39, 0x3b, 0xbe,
  0x05, 0x6a, 0x1b, 0xbe, 0xb9, 0xad, 0x1e, 0x3d, 0x24, 0x05, 0x3d, 0xbe,
  0x2b, 0xb4, 0x09, 0xbe, 0xe9, 0x5b, 0xbc, 0xbd, 0x4f, 0x2b, 0x1d, 0x3e,
  0x8f, 0x03, 0x66, 0xbd, 0xea, 0x64, 0x6e, 0xbe, 0xf0, 0x04, 0x99, 0xbe,
  0xa4, 0x50, 0x8f, 0x3e, 0xa8, 0x5c, 0x9f, 0xbe, 0x00, 0xa1, 0x29, 0xbe,
  0xf0, 0xc2, 0xaa, 0xbd, 0xd6, 0xf4, 0x49, 0xbd, 0x85, 0xaf, 0x4a, 0xbd,
  0xf1, 0x43, 0xc0, 0xbd, 0xc7, 0x81, 0xbf, 0xbe, 0xcb, 0xfe, 0xae, 0xbd,
  0x17, 0x0a, 0x83, 0xbe, 0x8e, 0xdb, 0x9d, 0xbe, 0x15, 0xad, 0xe5, 0xbc,
  0xfc, 0xb6, 0x62, 0x3e, 0x25, 0x2f, 0x29, 0xbc, 0x85, 0x22, 0x32, 0xbe,
  0x3a, 0x7e, 0x8c, 0xbe, 0xfa, 0x6a, 0x36, 0xbd, 0x1b, 0xbd, 0x08, 0x3e,
  0x52, 0x9c, 0xf9, 0xbd, 0xf1, 0xe7, 0x04, 0xbc, 0x88, 0x38, 0x13, 0x3d,
  0x50, 0x97, 0x09, 0x3a, 0x63, 0x2d, 0x49, 0x3d, 0xc0, 0x39, 0xaa, 0x3e,
  0x1f, 0x81, 0x15, 0x3f, 0x75, 0x53, 0xb3, 0x3d, 0xcd, 0x97, 0xff, 0xbc,
  0x9f, 0x21, 0xa5, 0xbe, 0xbf, 0xd1, 0x0d, 0xbe, 0xc1, 0x3b, 0xf8, 0xbd,
  0x24, 0x44, 0xc8, 0x3e, 0x4a, 0x8e, 0xa2, 0xbd, 0xf1, 0x3c, 0x2a, 0xbe,
  0xd7, 0xb5, 0x27, 0x3e, 0x39, 0x48, 0xd6, 0xbe, 0x9e, 0x86, 0x39, 0xbe,
  0x69, 0x9d, 0x7d, 0x3e, 0xa6, 0xfa, 0x6f, 0x3e, 0x37, 0x00, 0x1e, 0x3e,
  0x7b, 0x9e, 0xdb, 0x3c, 0xf7, 0xab, 0x19, 0xbf, 0xe9, 0xf4, 0x73, 0xbd,
  0x12, 0x3f, 0x91, 0xbd, 0xf5, 0x89, 0x0a, 0xbe, 0x37, 0x0d, 0x06, 0xbd,
  0x76, 0xfa, 0x4c, 0xbd, 0x01, 0x69, 0x88, 0xbd, 0xc5, 0x79, 0x2a, 0xbe,
  0x2d, 0x39, 0x7e, 0xbd, 0x6e, 0x79, 0x75, 0xbc, 0x12, 0x52, 0xd8, 0x3d,
  0x23, 0xf6, 0xc3, 0xbd, 0x4b, 0x18, 0x08, 0xbe, 0x4b, 0xbf, 0x19, 0xbd,
  0x72, 0xe6, 0x41, 0xbe, 0x07, 0xd5, 0x2b, 0xbe, 0xf2, 0x59, 0x74, 0xbe,
  0xd7, 0xa0, 0x86, 0xbd, 0x8c, 0xf0, 0xb8, 0xbd, 0xfc, 0x1e, 0x7d, 0xbe,
  0x53, 0x6f, 0x22, 0x3d, 0x18, 0x71, 0x7b, 0xbd, 0xd0, 0x2e, 0x56, 0xbe,
  0xb3, 0xa1, 0x6a, 0xbe, 0x9e, 0x1c, 0x2f, 0xbe, 0x26, 0xa9, 0x1a, 0xbe,
  0xad, 0x79, 0x28, 0x3d, 0x28, 0x26, 0xc6, 0xbe, 0xb5, 0x8d, 0xa9, 0x3d,
  0x63, 0x2a, 0x02, 0xbe, 0xa5, 0x64, 0x13, 0xbe, 0xc1, 0xfc, 0x5b, 0xbe,
  0x89, 0x74, 0xc9, 0x3d, 0xf2, 0x28, 0x56, 0xbd, 0x09, 0xf1, 0x4a, 0x3e,
  0x75, 0xc1, 0x9c, 0xbe, 0x0a, 0x54, 0x9c, 0x3c, 0x2d, 0xdd, 0x89, 0xbe,
  0x8c, 0x58, 0xcf, 0xbe, 0xff, 0x90, 0x10, 0xbe, 0x52, 0x26, 0xc3, 0xbd,
  0x82, 0xef, 0x51, 0xbe, 0x35, 0x17, 0x1d, 0xbe, 0xb4, 0x63, 0x36, 0xbd,
  0x59, 0xcc, 0x29, 0x3d, 0x4c, 0xc2, 0xe9, 0x3d, 0xb4, 0xb1, 0x88, 0xbe,
  0x49, 0x9c, 0x82, 0xbe, 0x3d, 0x22, 0xdf, 0xbd, 0xe4, 0xc3, 0x94, 0x3c,
  0x41, 0x3b, 0x49, 0x3e, 0x26, 0xde, 0xff, 0xff, 0x10, 0x00, 0x00, 0x00,
  0x0a, 0x00, 0x00, 0x00, 0x1c, 0x00, 0x00, 0x00, 0x38, 0x00, 0x00, 0x00,
  0x04, 0x00, 0x00, 0x00, 0x10, 0x00, 0x00, 0x00, 0x04, 0x00, 0x00, 0x00,
  0x01, 0x00, 0x00, 0x00, 0x08, 0x00, 0x00, 0x00, 0x1a, 0x00, 0x00, 0x00,
  0x73, 0x65, 0x71, 0x75, 0x65, 0x6e, 0x74, 0x69, 0x61, 0x6c, 0x2f, 0x63,
  0x6f, 0x6e, 0x76, 0x32, 0x64, 0x5f, 0x31, 0x2f, 0x43, 0x6f, 0x6e, 0x76,
  0x32, 0x44, 0x00, 0x00, 0x9c, 0xdd, 0xff, 0xff, 0xa6, 0xde, 0xff, 0xff,
  0x04, 0x00, 0x00, 0x00, 0x80, 0x01, 0x00, 0x00, 0xe9, 0x7d, 0x9f, 0x3c,
  0xee, 0xbd, 0xdd, 0x3d, 0x5c, 0xbd, 0x77, 0xbe, 0x8d, 0x03, 0xf5, 0xbc,
  0x58, 0xc0, 0x35, 0x3e, 0x57, 0xfb, 0xb3, 0xbd, 0x9e, 0x58, 0xd2, 0x3d,
  0x4b, 0x5c, 0x2c, 0xbe, 0xa0, 0x9a, 0x7c, 0xbd, 0xed, 0x3f, 0xbf, 0x3d,
  0x8b, 0xa8, 0x32, 0xbe, 0x18, 0xbc, 0x28, 0x3e, 0x81, 0x62, 0x83, 0x3c,
  0x9b, 0x24, 0x12, 0x3c, 0x01, 0xc5, 0x0a, 0xbe, 0xe2, 0xbd, 0x95, 0xbd,
  0xce, 0xdd, 0x35, 0x3e, 0xce, 0x2b, 0x14, 0xbf, 0x09, 0x15, 0xc3, 0x3d,
  0x7b, 0x57, 0xc4, 0xbc, 0xba, 0x20, 0x88, 0x3d, 0xe8, 0x81, 0xc5, 0xba,
  0x43, 0x67, 0x33, 0xbe, 0x68, 0x66, 0x17, 0x3f, 0x10, 0x9a, 0x45, 0x3e,
  0xc5, 0x8e, 0xfc, 0xbd, 0x88, 0x4e, 0x6c, 0xbd, 0x4b, 0xf6, 0x04, 0x3f,
  0x4d, 0x5b, 0xe2, 0x3d, 0xec, 0x83, 0x20, 0x3d, 0x41, 0x37, 0xe4, 0xbd,
  0x5e, 0x91, 0x1b, 0x3e, 0x7d, 0x78, 0x01, 0xbe, 0xc3, 0x9c, 0x5d, 0xbe,
  0xa8, 0x2b, 0x01, 0x3d, 0x21, 0xe2, 0x4c, 0x3d, 0x5c, 0xac, 0x03, 0x3e,
  0x3c, 0xa4, 0x99, 0x3d, 0x5c, 0xd7, 0x16, 0x3e, 0x5c, 0x65, 0x95, 0x3c,
  0xd9, 0x3f, 0x8f, 0x3e, 0xdd, 0xf3, 0x4f, 0x3e, 0x68, 0x96, 0xea, 0xbd,
  0x6c, 0x47, 0x76, 0xbd, 0x2f, 0x88, 0xaa, 0xbd, 0xa3, 0xdd, 0x80, 0xbc,
  0x83, 0xc9, 0xac, 0xbe, 0x46, 0xd0, 0xab, 0xbe, 0xdb, 0x89, 0x11, 0x3b,
  0x83, 0x7d, 0x45, 0x3e, 0x83, 0xeb, 0xb3, 0x3e, 0x13, 0x29, 0x5d, 0xbd,
  0xd4, 0xd6, 0xdb, 0xbd, 0x82, 0x22, 0xca, 0xbd, 0x5f, 0xd3, 0xa2, 0x3d,
  0xdf, 0x49, 0x45, 0xbe, 0xfd, 0xbb, 0xc3, 0xbe, 0x34, 0x59, 0xf1, 0xbd,
  0x28, 0xc1, 0xc1, 0xbc, 0x4c, 0x6b, 0xa0, 0xbd, 0xba, 0xa7, 0x26, 0xbc,
  0xed, 0x22, 0x86, 0xbd, 0xbc, 0x3d, 0x1b, 0xbd, 0xb5, 0x75, 0x48, 0xbe,
  0x2c, 0xbb, 0xca, 0xbe, 0xc2, 0xd6, 0x2f, 0xbe, 0xde, 0x92, 0x82, 0xbd,
  0x32, 0xa9, 0xf2, 0x3d, 0xf2, 0xfd, 0x0a, 0x3e, 0xf3, 0x07, 0xa6, 0x3e,
  0xa3, 0x76, 0xbb, 0x3e, 0xd9, 0xc8, 0x96, 0x3d, 0xe8, 0x17, 0xaa, 0x3e,
  0xdd, 0x93, 0xe8, 0xbd, 0x19, 0xfe, 0x50, 0x3e, 0x79, 0xb3, 0x14, 0x3b,
  0xcc, 0x05, 0xc3, 0x3d, 0x2a, 0xb6, 0x54, 0xbc, 0xea, 0x51, 0x87, 0xbe,
  0x6f, 0x80, 0x3a, 0xbd, 0xc3, 0x78, 0xa4, 0x3a, 0x19, 0x28, 0x39, 0xbe,
  0x32, 0xa7, 0x8c, 0xbc, 0xc6, 0x80, 0x93, 0x3d, 0x91, 0x9b, 0xae, 0x3c,
  0x25, 0x41, 0x05, 0xbe, 0xae, 0xf5, 0x43, 0x3d, 0x9f, 0x18, 0x0a, 0xbd,
  0xbd, 0x3e, 0x85, 0xbd, 0x01, 0x16, 0xd0, 0x3d, 0xf3, 0x0f, 0x59, 0xbd,
  0x99, 0x14, 0x10, 0xbd, 0xc6, 0xd6, 0x43, 0x3c, 0xba, 0x47, 0x09, 0xbd,
  0x3c, 0xee, 0x7c, 0x3c, 0xfc, 0x52, 0x8f, 0x3c, 0xfe, 0xdf, 0xff, 0xff,
  0x10, 0x00, 0x00, 0x00, 0x09, 0x00, 0x00, 0x00, 0x1c, 0x00, 0x00, 0x00,
  0x38, 0x00, 0x00, 0x00, 0x04, 0x00, 0x00, 0x00, 0x08, 0x00, 0x00, 0x00,
  0x04, 0x00, 0x00, 0x00, 0x03, 0x00, 0x00, 0x00, 0x01, 0x00, 0x00, 0x00,
  0x18, 0x00, 0x00, 0x00, 0x73, 0x65, 0x71, 0x75, 0x65, 0x6e, 0x74, 0x69,
  0x61, 0x6c, 0x2f, 0x63, 0x6f, 0x6e, 0x76, 0x32, 0x64, 0x2f, 0x43, 0x6f,
  0x6e, 0x76, 0x32, 0x44, 0x00, 0x00, 0x00, 0x00, 0x74, 0xdf, 0xff, 0xff,
  0x7e, 0xe0, 0xff, 0xff, 0x04, 0x00, 0x00, 0x00, 0xc0, 0x00, 0x00, 0x00,
  0xb3, 0xa3, 0xf9, 0xbc, 0xb1, 0xf8, 0x54, 0x3e, 0x40, 0x62, 0xa6, 0xbe,
  0xc5, 0xee, 0xfb, 0xbd, 0x1d, 0x11, 0x31, 0xbb, 0x18, 0x4f, 0x7b, 0x3d,
  0xe4, 0x22, 0x91, 0x3e, 0xd5, 0x55, 0xcd, 0x3e, 0x93, 0x6b, 0x30, 0x3f,
  0xd7, 0x5e, 0xe7, 0x3d, 0x1d, 0xec, 0x40, 0xbe, 0xc7, 0x18, 0xb9, 0x3d,
  0xac, 0x6a, 0x83, 0xbd, 0xf8, 0x75, 0x88, 0x3e, 0xbf, 0x26, 0x96, 0xbe,
  0xb8, 0x22, 0x4e, 0x3e, 0x8c, 0x90, 0x94, 0xbd, 0x00, 0xba, 0x64, 0x3e,
  0xfd, 0x0f, 0x3a, 0x3e, 0x76, 0x47, 0x28, 0xbe, 0xcf, 0xe9, 0x09, 0x3d,
  0xdd, 0x3d, 0xca, 0x3d, 0x79, 0xbd, 0x72, 0x3e, 0xcd, 0xb0, 0x04, 0xbf,
  0xbf, 0x39, 0xb0, 0xbc, 0x28, 0xcc, 0xb6, 0x3c, 0x6f, 0xd2, 0x0c, 0xbe,
  0x5c, 0xb3, 0x5c, 0x3a, 0xa7, 0xd7, 0x57, 0xbd, 0x56, 0xed, 0x9e, 0x3e,
  0x50, 0x82, 0xa6, 0x3e, 0x9c, 0xe2, 0x80, 0x3e, 0xd9, 0x9f, 0x99, 0xbd,
  0xfc, 0x7b, 0xcc, 0x3d, 0xef, 0xc8, 0x5c, 0x3e, 0x8c, 0x09, 0x3a, 0xbe,
  0xc5, 0x4f, 0x50, 0xbd, 0xcd, 0x1c, 0x15, 0x3d, 0x6d, 0x56, 0x61, 0x3e,
  0x9e, 0x65, 0xe3, 0xbe, 0x61, 0xd4, 0x9e, 0xbe, 0xb9, 0x1f, 0x51, 0x3e,
  0x88, 0x3d, 0x59, 0xbe, 0xca, 0x5c, 0x09, 0xbf, 0xd0, 0xa7, 0x5e, 0xbc,
  0xbe, 0xd3, 0x85, 0x3e, 0xf4, 0x65, 0xa5, 0x3e, 0x69, 0x97, 0x90, 0x3e,
  0x16, 0xe1, 0xff, 0xff, 0x10, 0x00, 0x00, 0x00, 0x08, 0x00, 0x00, 0x00,
  0x14, 0x00, 0x00, 0x00, 0x30, 0x00, 0x00, 0x00, 0x02, 0x00, 0x00, 0x00,
  0x03, 0x00, 0x00, 0x00, 0x10, 0x00, 0x00, 0x00, 0x19, 0x00, 0x00, 0x00,
  0x73, 0x65, 0x71, 0x75, 0x65, 0x6e, 0x74, 0x69, 0x61, 0x6c, 0x2f, 0x64,
  0x65, 0x6e, 0x73, 0x65, 0x5f, 0x31, 0x2f, 0x4d, 0x61, 0x74, 0x4d, 0x75,
  0x6c, 0x00, 0x00, 0x00, 0x84, 0xe0, 0xff, 0xff, 0x8e, 0xe1, 0xff, 0xff,
  0x04, 0x00, 0x00, 0x00, 0x00, 0x1c, 0x00, 0x00, 0x4f, 0x1d, 0x9b, 0xbe,
  0xf1, 0xa8, 0x92, 0xbd, 0x31, 0x43, 0x99, 0xbe, 0x02, 0x2b, 0x8a, 0xbe,
  0x05, 0x8f, 0x3c, 0x3e, 0x51, 0xca, 0x02, 0xbe, 0xb7, 0x8d, 0x84, 0xbc,
  0x9e, 0x7d, 0x1c, 0xbd, 0xa9, 0x50, 0xa2, 0xbd, 0x17, 0x3b, 0xe3, 0x3d,
  0x55, 0x79, 0xf5, 0x3e, 0x9d, 0xc5, 0xe9, 0x3d, 0x33, 0x98, 0x4b, 0x3e,
  0x37, 0xd1, 0xa6, 0xbe, 0xc3, 0x68, 0x27, 0xbe, 0x5f, 0x8b, 0xdc, 0xbe,
  0xa4, 0xcc, 0x4b, 0xbd, 0x09, 0x23, 0x69, 0x3e, 0x75, 0xd6, 0x07, 0xbf,
  0x06, 0x91, 0x41, 0x3c, 0xe3, 0x5f, 0x65, 0x3d, 0xc8, 0xc8, 0x27, 0xbe,
  0x41, 0x32, 0xa5, 0xbd, 0x0c, 0x5a, 0x3e, 0xbe, 0x63, 0x99, 0x08, 0xbe,
  0x9d, 0x33, 0x36, 0xbd, 0x99, 0xa9, 0xbe, 0x3e, 0xab, 0xc3, 0x6c, 0x39,
  0x9e, 0x5c, 0x6e, 0x3e, 0xb0, 0x09, 0xac, 0x3d, 0xc6, 0x9c, 0x05, 0xbe,
  0x84, 0xb5, 0x9a, 0xbe, 0xf0, 0xaf, 0x7f, 0xbe, 0xc3, 0x79, 0xac, 0x3e,
  0xc2, 0x45, 0x88, 0xbd, 0x95, 0x87, 0x28, 0x3e, 0x0f, 0xa4, 0x2a, 0x3e,
  0x16, 0x31, 0xa5, 0xbd, 0x3d, 0x8f, 0x78, 0xbc, 0x2d, 0xb0, 0xae, 0xbe,
  0xd5, 0xf6, 0x58, 0x3e, 0x59, 0x6a, 0xcf, 0x3d, 0x5c, 0x4e, 0xc5, 0x3e,
  0xc5, 0x50, 0x81, 0x3c, 0x78, 0x7a, 0x00, 0x3e, 0xa7, 0x78, 0x90, 0x3e,
  0xa0, 0x14, 0x2a, 0xbe, 0xba, 0x89, 0xcd, 0xbe, 0xb5, 0x70, 0x31, 0xbe,
  0xff, 0x41, 0xc8, 0x3e, 0xed, 0x42, 0x19, 0xbe, 0x4d, 0x2e, 0x75, 0x3e,
  0x28, 0x7e, 0x0d, 0x3e, 0xfc, 0xe9, 0x07, 0xbe, 0x1c, 0xa2, 0xae, 0xbc,
  0xfa, 0xac, 0xad, 0xbe, 0xcd, 0x8f, 0xe5, 0x3e, 0x81, 0x58, 0x66, 0x3e,
  0xa8, 0xe3, 0x56, 0x3e, 0xfe, 0x17, 0xca, 0x3d, 0x7c, 0x52, 0x1a, 0x3e,
  0x3d, 0x99, 0x7e, 0x3e, 0xad, 0x57, 0x3b, 0x3b, 0x87, 0x96, 0x15, 0x3c,
  0x3e, 0x16, 0x34, 0xbe, 0x8b, 0x45, 0x8b, 0x3e, 0x50, 0x00, 0x8b, 0xbd,
  0x36, 0x81, 0xa7, 0xbd, 0x63, 0x03, 0xd3, 0x3d, 0x99, 0xfc, 0x2c, 0xbd,
  0xb3, 0xf0, 0xf1, 0x3b, 0x3e, 0x71, 0xa5, 0x3d, 0x29, 0x1a, 0x91, 0xbd,
  0x07, 0xb1, 0xd8, 0xbd, 0x68, 0x0c, 0xc5, 0x3e, 0x4b, 0x77, 0x82, 0x3d,
  0x65, 0x04, 0xa3, 0x3e, 0x09, 0xe0, 0x33, 0xbd, 0xe2, 0x11, 0x54, 0xbd,
  0x88, 0x5a, 0xca, 0x3d, 0x75, 0x60, 0xa0, 0xbe, 0x25, 0xed, 0x21, 0x3e,
  0x2b, 0x32, 0x53, 0xbe, 0x1a, 0xee, 0xcd, 0xbd, 0xc1, 0x80, 0xb9, 0x3e,
  0x00, 0x90, 0x9d, 0x3d, 0x0d, 0xf1, 0x86, 0xbd, 0xb7, 0x7b, 0x79, 0xbe,
  0x9f, 0xb4, 0x2a, 0xbd, 0x5a, 0x1a, 0x8d, 0xbe, 0x40, 0x14, 0xa1, 0x3e,
  0xf2, 0x91, 0xcf, 0xbe, 0xaa, 0x0d, 0x66, 0x3c, 0x2f, 0xd0, 0x59, 0xbc,
  0xe9, 0x53, 0x40, 0xbd, 0x0f, 0x73, 0x37, 0xbe, 0xc1, 0x6c, 0xad, 0xbd,
  0x16, 0x6e, 0x74, 0x3e, 0xaa, 0x31, 0x1f, 0xbe, 0xfb, 0x21, 0x72, 0xbe,
  0x9b, 0x29, 0x37, 0xbe, 0xac, 0x8e, 0x75, 0xbe, 0x54, 0xca, 0xc4, 0xbc,
  0xec, 0xe4, 0x63, 0xbe, 0x52, 0x42, 0x3e, 0xbe, 0xd8, 0x95, 0x31, 0x3b,
  0x89, 0x85, 0x17, 0xbd, 0xb6, 0xe5, 0xf0, 0xbb, 0x53, 0x3d, 0x99, 0x3d,
  0xba, 0x7e, 0xf7, 0x3d, 0x71, 0x14, 0x5d, 0x3b, 0xce, 0xf0, 0x93, 0xbc,
  0xa0, 0x70, 0x08, 0xbd, 0xe1, 0x90, 0xeb, 0x3d, 0xd5, 0xc6, 0x6e, 0x3d,
  0x43, 0x88, 0x0d, 0x3e, 0x9d, 0xdd, 0x93, 0x3d, 0x1b, 0x06, 0x40, 0xbe,
  0xb0, 0xc0, 0xc1, 0x3b, 0x8d, 0xfc, 0x4f, 0xbe, 0xc0, 0x1f, 0x0a, 0x3b,
  0x8c, 0x41, 0x20, 0xbe, 0x32, 0x68, 0x64, 0x3c, 0xf6, 0x75, 0x5c, 0xbc,
  0xe6, 0x49, 0x7b, 0x3e, 0x0b, 0xd4, 0x04, 0x3e, 0x6c, 0xf2, 0xb7, 0xbc,
  0x3c, 0x19, 0xda, 0xbe, 0xb7, 0x10, 0x2e, 0xbe, 0x2c, 0x38, 0xf4, 0xbd,
  0x8d, 0x0d, 0x04, 0x3b, 0xc6, 0xb7, 0x28, 0x3e, 0x47, 0xe4, 0x1b, 0x3e,
  0xea, 0x84, 0x77, 0xbe, 0x61, 0xa9, 0x10, 0xbd, 0xd0, 0xa4, 0xfb, 0xbd,
  0x57, 0xf1, 0x75, 0x3e, 0x57, 0xcd, 0x60, 0xbe, 0xd2, 0x71, 0x0a, 0x3e,
  0x17, 0x34, 0x40, 0xbd, 0xe5, 0xaf, 0x51, 0x3e, 0xf5, 0x3e, 0x14, 0xbe,
  0xe2, 0x38, 0xa1, 0x3d, 0x47, 0x99, 0xba, 0xbe, 0x44, 0xb3, 0x9a, 0xbe,
  0xd3, 0x3b, 0x06, 0xbe, 0x04, 0x3a, 0x55, 0xbe, 0xa3, 0xa4, 0x64, 0xbd,
  0x04, 0xf9, 0xa8, 0x3d, 0x25, 0xb4, 0xff, 0xbd, 0x2d, 0x95, 0x53, 0xbd,
  0xda, 0x76, 0xca, 0xbd, 0x99, 0x03, 0xe7, 0xbd, 0xb8, 0x32, 0x45, 0x3e,
  0x1a, 0xad, 0x53, 0x3e, 0xf6, 0xb2, 0x32, 0x3c, 0x00, 0xf1, 0x0d, 0xbd,
  0x1a, 0x65, 0x25, 0xbe, 0x40, 0xd7, 0xd9, 0xbd, 0x9b, 0x70, 0x17, 0xbe,
  0x4e, 0x89, 0x78, 0xbe, 0xa2, 0xf1, 0x31, 0xbe, 0xdb, 0xd0, 0x4c, 0xbe,
  0xc1, 0x24, 0x8f, 0xbe, 0xde, 0x9d, 0xbd, 0xbd, 0x02, 0xac, 0xb9, 0xbd,
  0x24, 0x46, 0x3c, 0xbd, 0x6b, 0x6b, 0x03, 0x3d, 0xa3, 0x11, 0x43, 0xbe,
  0x4d, 0x3e, 0x35, 0xbd, 0x50, 0xe2, 0x49, 0x3e, 0xd5, 0x8b, 0x2b, 0xbc,
  0xa7, 0x1c, 0x35, 0xbd, 0xd8, 0xa3, 0xcc, 0xbd, 0xd9, 0xb2, 0x3e, 0xbe,
  0x05, 0xc0, 0x0f, 0xbe, 0x32, 0x5a, 0x00, 0xbe, 0x02, 0x48, 0xe9, 0x3d,
  0x9d, 0x03, 0x1b, 0xbe, 0x45, 0xe1, 0x87, 0x3e, 0x1f, 0xef, 0xc2, 0xbd,
  0x02, 0xf6, 0x00, 0xbe, 0xb8, 0x91, 0x05, 0xbd, 0x6c, 0x13, 0xf9, 0xbd,
  0xa2, 0x2c, 0x4b, 0x3e, 0x99, 0xc0, 0x45, 0xbe, 0xa9, 0xd6, 0x80, 0x3e,
  0x49, 0xa0, 0xc9, 0x3c, 0x6d, 0xe6, 0x43, 0xbe, 0x99, 0x22, 0x6b, 0x3e,
  0xfe, 0x3a, 0x65, 0xbe, 0x89, 0xeb, 0x50, 0xbd, 0x03, 0x9f, 0xc9, 0xbd,
  0x20, 0x9b, 0x15, 0x3e, 0xaa, 0xa9, 0xb3, 0x3a, 0xaa, 0x54, 0x3c, 0x3e,
  0xf4, 0x5b, 0x7b, 0xbe, 0x31, 0x6e, 0x48, 0xbe, 0x9c, 0x38, 0x52, 0xbc,
  0xd6, 0xf2, 0x00, 0xbe, 0x15, 0xa6, 0x18, 0x3e, 0x07, 0x11, 0xbb, 0xbd,
  0x81, 0x3c, 0x8a, 0x3e, 0x4c, 0xcf, 0xa3, 0x3b, 0xd6, 0x8e, 0xfa, 0x3c,
  0x2e, 0x33, 0xa5, 0x3d, 0x81, 0x20, 0x23, 0x3e, 0x3b, 0x8e, 0xa1, 0xbe,
  0x52, 0x2f, 0xa3, 0xbc, 0x98, 0x11, 0x0e, 0x3e, 0x30, 0x2c, 0x9d, 0xbb,
  0xcc, 0x58, 0xdd, 0x3d, 0x60, 0xa2, 0x3f, 0x3d, 0x85, 0x1c, 0x2a, 0xbe,
  0xa1, 0xee, 0x48, 0x3d, 0xb5, 0x7c, 0x15, 0xbe, 0xc7, 0x75, 0x76, 0x3b,
  0x04, 0x8b, 0x54, 0xbd, 0x64, 0x42, 0x27, 0x3d, 0x81, 0x02, 0xa9, 0x3b,
  0xd8, 0xd2, 0x81, 0x3d, 0xed, 0xf4, 0x9f, 0x3d, 0x21, 0x7b, 0x11, 0xbd,
  0xf8, 0xde, 0x9e, 0xbd, 0xc7, 0x1e, 0x92, 0xbe, 0xb1, 0xb2, 0x01, 0x3e,
  0xf2, 0xdd, 0xe7, 0x3c, 0x02, 0xa1, 0x60, 0xba, 0x5a, 0x00, 0x57, 0x3c,
  0xc8, 0x32, 0xef, 0x3e, 0x14, 0xc8, 0x3b, 0xbe, 0xeb, 0x0c, 0x56, 0x3c,
  0x99, 0xb5, 0x23, 0xbe, 0x83, 0xaa, 0xd2, 0x3d, 0xac, 0xfd, 0x32, 0xbe,
  0x27, 0x91, 0x10, 0xbd, 0x1c, 0x13, 0x29, 0xbe, 0x14, 0x32, 0xdd, 0xbd,
  0xed, 0x36, 0x20, 0x3e, 0x7d, 0xb3, 0x8a, 0x3e, 0x1c, 0xfb, 0x8a, 0xbc,
  0x32, 0xa5, 0xf8, 0x3d, 0x5d, 0xcf, 0x1e, 0x3d, 0x37, 0x11, 0xa8, 0xbc,
  0xa3, 0xc8, 0x3e, 0xbe, 0xbe, 0x28, 0x79, 0x3e, 0x31, 0x70, 0x9b, 0xbe,
  0xbe, 0xd5, 0x7f, 0xbe, 0x66, 0xbe, 0x66, 0x3d, 0x4b, 0x0e, 0x0d, 0xbe,
  0xa5, 0x73, 0x3d, 0xbe, 0xe4, 0xd9, 0x0f, 0x3e, 0x83, 0xf7, 0x22, 0x3b,
  0x19, 0x46, 0x1c, 0x3e, 0xc9, 0x63, 0x9c, 0xbd, 0x1f, 0x66, 0x97, 0x3e,
  0xf6, 0x42, 0x2c, 0x3d, 0x97, 0xf9, 0x16, 0x3e, 0x8f, 0xd8, 0x19, 0x3e,
  0x2c, 0x54, 0x2b, 0x3d, 0xf8, 0x1f, 0xf9, 0x3d, 0xae, 0xf0, 0xc9, 0x3e,
  0x7b, 0xe8, 0xe2, 0xbb, 0x67, 0xa5, 0x60, 0xbd, 0x73, 0xda, 0x75, 0xbe,
  0xa9, 0x0f, 0x38, 0x3e, 0x6e, 0xf6, 0x1b, 0xbe, 0x62, 0x2a, 0x32, 0x3d,
  0xe3, 0x11, 0x24, 0x3e, 0x22, 0x18, 0x72, 0xbe, 0xdc, 0xc2, 0x09, 0x3e,
  0x71, 0x28, 0xc3, 0x3e, 0x0a, 0x4a, 0xf7, 0xbd, 0x54, 0x77, 0xa4, 0x3e,
  0x7b, 0x32, 0x37, 0xbb, 0x22, 0xc5, 0x90, 0xbd, 0xe7, 0xcf, 0x8c, 0x3d,
  0xf1, 0x73, 0xa1, 0x3e, 0xee, 0xe1, 0x6f, 0xbe, 0x35, 0x97, 0x18, 0xbd,
  0x8a, 0x10, 0xe2, 0xbd, 0x60, 0x40, 0x29, 0xbe, 0xba, 0x6b, 0xab, 0xbd,
  0x68, 0xd4, 0x18, 0xbe, 0xb7, 0x0b, 0x89, 0x3d, 0x35, 0xfc, 0x2c, 0x3d,
  0x0d, 0xb7, 0xf9, 0x3b, 0x2e, 0x8d, 0xe9, 0x3e, 0xaa, 0x04, 0xab, 0x3d,
  0x52, 0x65, 0xb1, 0xbd, 0x20, 0xf7, 0xc9, 0xbd, 0x32, 0xc5, 0xb6, 0x3d,
  0x1b, 0x95, 0x44, 0x3c, 0x05, 0xf9, 0x40, 0x3e, 0x3f, 0x2e, 0x95, 0xbe,
  0xa0, 0xb4, 0x92, 0x3d, 0xb8, 0x48, 0x54, 0xbd, 0xf9, 0x01, 0x14, 0x3d,
  0x93, 0x65, 0x7b, 0xbd, 0x96, 0xdf, 0x02, 0x3e, 0x71, 0x16, 0x18, 0xbe,
  0xdd, 0xf3, 0x03, 0xbd, 0xc1, 0x03, 0x9e, 0x3d, 0x91, 0x94, 0xb9, 0xbd,
  0x16, 0xd3, 0x97, 0x3d, 0x05, 0xc5, 0x36, 0xbe, 0xd4, 0x45, 0xb4, 0x3d,
  0xe6, 0x61, 0x3b, 0xbd, 0x76, 0xfb, 0x88, 0xbe, 0xd2, 0x61, 0xae, 0xbc,
  0x43, 0x26, 0xce, 0xbe, 0xf0, 0x09, 0xaf, 0xbd, 0x69, 0x09, 0x33, 0xbe,
  0x87, 0x74, 0x91, 0x3c, 0xf8, 0x10, 0x9b, 0xbe, 0x9c, 0xac, 0xb0, 0xbc,
  0xd9, 0xe7, 0x31, 0x3e, 0x2b, 0x98, 0x83, 0xbd, 0x2c, 0xf3, 0x43, 0xbd,
  0x42, 0x83, 0x73, 0x3e, 0xf2, 0xdf, 0xbc, 0x3d, 0xd8, 0x10, 0x98, 0x3d,
  0xf4, 0x39, 0x21, 0x3d, 0x01, 0x7d, 0x07, 0xbe, 0x19, 0x0f, 0x30, 0xbe,
  0x7f, 0x83, 0x47, 0x3e, 0x1b, 0xa7, 0x06, 0xbe, 0x30, 0x04, 0x92, 0x3e,
  0xfe, 0x5e, 0x08, 0x3c, 0xcb, 0xd7, 0xd6, 0xbd, 0xfb, 0xff, 0xbd, 0xbd,
  0x1b, 0xc9, 0xbc, 0xbd, 0x07, 0x58, 0x7e, 0xbe, 0x69, 0xf3, 0xca, 0xbc,
  0xaa, 0x1a, 0x1d, 0x3e, 0xe8, 0x02, 0x7d, 0x3e, 0x92, 0xdb, 0x49, 0xbd,
  0x59, 0x0b, 0xb4, 0x3c, 0xad, 0x45, 0x60, 0xbe, 0x34, 0x4d, 0x83, 0xbe,
  0xc0, 0xd5, 0x20, 0x3e, 0x4e, 0xe8, 0x20, 0xbe, 0x51, 0xee, 0x6c, 0x3d,
  0x47, 0xcf, 0x88, 0x3e, 0x0e, 0xe4, 0xaa, 0xbe, 0xcb, 0x6a, 0x25, 0xbe,
  0x80, 0xcd, 0xbf, 0x3e, 0xc3, 0xe5, 0x20, 0x3e, 0x64, 0x74, 0x82, 0x3e,
  0xcb, 0xff, 0x41, 0xbe, 0xc2, 0x9a, 0xaa, 0xbd, 0xf0, 0xbf, 0xac, 0xbe,
  0x16, 0x29, 0x31, 0x3d, 0xf8, 0xdd, 0x61, 0x3e, 0x4b, 0xcf, 0x8a, 0xbd,
  0x25, 0x51, 0x6b, 0xbd, 0x6d, 0xbb, 0x5e, 0x3d, 0x57, 0x44, 0xa9, 0xbe,
  0x2f, 0xeb, 0x4f, 0xbd, 0xd1, 0x67, 0xae, 0x3d, 0xed, 0x75, 0xd7, 0xbb,
  0xe0, 0x04, 0x01, 0x3e, 0xc4, 0xdc, 0xbe, 0x3e, 0x16, 0x8e, 0xf8, 0xbe,
  0xe9, 0x55, 0x72, 0xbd, 0x99, 0xfe, 0x7a, 0xbe, 0xd4, 0xee, 0x50, 0xbd,
  0xd3, 0x6c, 0xb3, 0xbd, 0x81, 0x66, 0x72, 0xbe, 0xd5, 0xa3, 0x0b, 0x3f,
  0x80, 0x02, 0x83, 0xbe, 0x4b, 0x0a, 0x90, 0x3e, 0x12, 0xc4, 0xbc, 0xbe,
  0xb8, 0x1d, 0xab, 0xbe, 0x31, 0xc6, 0xaf, 0xbd, 0x11, 0xc4, 0x83, 0xbe,
  0x77, 0xcd, 0x1d, 0x3e, 0xd4, 0x65, 0xb3, 0xbc, 0x71, 0x45, 0x62, 0x3e,
  0x54, 0xb9, 0x5b, 0xbe, 0x78, 0xfe, 0x06, 0xbf, 0x3e, 0x30, 0xaa, 0x3e,
  0x78, 0x5a, 0xc4, 0xbe, 0xeb, 0xbf, 0x81, 0xbe, 0x7e, 0x25, 0xe3, 0xbe,
  0x89, 0x18, 0xb1, 0x3e, 0xf2, 0xa9, 0xa4, 0xbe, 0xb3, 0xd0, 0x80, 0x3d,
  0x0e, 0x7a, 0xc7, 0x3d, 0x66, 0x2c, 0xe7, 0x3c, 0xa3, 0x18, 0x44, 0xbd,
  0xca, 0x99, 0xd6, 0xbd, 0x95, 0x9e, 0xff, 0x3d, 0x4a, 0x71, 0x3b, 0xbd,
  0xe0, 0x1c, 0x26, 0x3f, 0xc7, 0xfd, 0x23, 0x3d, 0xa4, 0x50, 0xab, 0x3d,
  0x60, 0x13, 0x0e, 0xbd, 0x1b, 0xd1, 0xce, 0xbd, 0x9d, 0xc0, 0xa2, 0xbe,
  0x63, 0x1a, 0x96, 0xbe, 0x36, 0x82, 0x27, 0x3e, 0xd5, 0x28, 0x20, 0xbf,
  0x74, 0x60, 0xc6, 0xbe, 0xdd, 0xa5, 0x2e, 0x3e, 0x08, 0x99, 0x62, 0x3e,
  0x35, 0x6e, 0x50, 0xbc, 0x06, 0x6d, 0x9e, 0xbe, 0xc1, 0x8f, 0x08, 0xbe,
  0x13, 0xd9, 0xde, 0x3d, 0x13, 0x47, 0x9c, 0x3e, 0x04, 0xb6, 0x1f, 0xbe,
  0xe3, 0x3e, 0x48, 0x3e, 0x3e, 0x55, 0x34, 0xbe, 0xd9, 0x90, 0x2e, 0x3e,
  0xe3, 0xb1, 0x7f, 0xbd, 0x03, 0xd5, 0x78, 0xbe, 0x75, 0x66, 0x1d, 0x3e,
  0x55, 0x97, 0x6d, 0xbe, 0xa5, 0x1a, 0x36, 0xbe, 0xc8, 0x07, 0xae, 0x3e,
  0xee, 0x45, 0x16, 0xbd, 0x2a, 0x58, 0xcc, 0xbc, 0xfc, 0xce, 0xaa, 0xbe,
  0xb6, 0x7d, 0x48, 0xbe, 0xfd, 0x90, 0xee, 0xbd, 0x7c, 0x99, 0xcd, 0x3e,
  0xd3, 0x3c, 0xba, 0x3e, 0x97, 0x35, 0x80, 0x3e, 0x86, 0x39, 0x0f, 0xbe,
  0xfe, 0xdc, 0x83, 0xbe, 0x4d, 0x86, 0x2a, 0xbe, 0x21, 0x6c, 0x21, 0x3d,
  0x05, 0xd2, 0x25, 0x3e, 0x2d, 0xea, 0x9a, 0xbd, 0x83, 0x3d, 0x2b, 0x3c,
  0x6e, 0x18, 0xa2, 0x3e, 0x6e, 0x87, 0xc2, 0xbd, 0xd1, 0xe0, 0xb8, 0xbd,
  0x4e, 0xe0, 0x90, 0x3e, 0x98, 0x66, 0x7c, 0xbe, 0x67, 0xd9, 0x5a, 0xbe,
  0x6e, 0xff, 0xab, 0xbd, 0xc5, 0x0b, 0x8f, 0xbd, 0x37, 0x46, 0x91, 0xbd,
  0xf5, 0x67, 0x16, 0x3d, 0x54, 0x7d, 0x14, 0xbe, 0x65, 0x88, 0x20, 0xbe,
  0x16, 0x2e, 0x16, 0xbd, 0xaf, 0x6c, 0xe3, 0x3d, 0xd3, 0xd9, 0x97, 0xbc,
  0xae, 0xca, 0xa9, 0x3c, 0xdb, 0x93, 0x79, 0xbe, 0xd5, 0x30, 0xa0, 0xbd,
  0xc4, 0x87, 0x8d, 0xbe, 0xed, 0x49, 0xce, 0xbd, 0x23, 0x8b, 0x74, 0xbe,
  0xa0, 0xa7, 0xe9, 0xbc, 0x1a, 0x0e, 0xd2, 0xbd, 0x0b, 0x5d, 0xd1, 0xbe,
  0x52, 0xdd, 0xe9, 0xbd, 0xd2, 0x1e, 0xb6, 0xbe, 0x4a, 0xfd, 0xab, 0x3c,
  0x6e, 0x88, 0x9b, 0xbc, 0x31, 0xf1, 0x91, 0x3d, 0xb3, 0x75, 0x7f, 0xbe,
  0x3e, 0x6e, 0xcf, 0x3d, 0x0b, 0x3a, 0x9e, 0x3d, 0x44, 0x0d, 0x12, 0xbd,
  0xa7, 0x57, 0x88, 0xbe, 0x46, 0x12, 0x58, 0xbe, 0x5a, 0x97, 0x75, 0xbd,
  0xaa, 0xe4, 0x78, 0xbd, 0x66, 0x1a, 0x5a, 0xbe, 0x31, 0x19, 0x59, 0xbd,
  0x9b, 0xac, 0x15, 0xbe, 0x34, 0x80, 0x5b, 0xbe, 0x2b, 0x66, 0x85, 0xbe,
  0x92, 0xc9, 0x45, 0xbb, 0xa6, 0x6f, 0x98, 0xbc, 0xc6, 0xb9, 0x2c, 0xbe,
  0x0b, 0x99, 0x72, 0xbe, 0x00, 0x8e, 0x07, 0x3e, 0x64, 0x2a, 0xde, 0xbe,
  0x64, 0x70, 0x8f, 0xbb, 0x18, 0x40, 0x75, 0xbe, 0xa9, 0xe4, 0x52, 0xbe,
  0x4b, 0x5e, 0x8e, 0xbc, 0x67, 0xf6, 0xf4, 0xbd, 0xcf, 0x42, 0x91, 0x3d,
  0x96, 0x13, 0x07, 0xbe, 0x42, 0xb9, 0x71, 0xbe, 0x4d, 0x42, 0x20, 0xbe,
  0xf5, 0x48, 0xd3, 0xbd, 0x54, 0x32, 0xa1, 0x3d, 0xeb, 0x82, 0xbf, 0x3d,
  0x09, 0x21, 0xfe, 0xbc, 0xe5, 0x8f, 0xab, 0xbe, 0x15, 0x7c, 0x9a, 0xbb,
  0x6d, 0x8d, 0xad, 0xbe, 0x14, 0x46, 0xc3, 0xbd, 0x4b, 0x2b, 0xa8, 0xbd,
  0x83, 0xf3, 0x7c, 0xbe, 0xe0, 0xa6, 0x8f, 0xbd, 0xae, 0x70, 0xad, 0xbe,
  0x5a, 0x53, 0x31, 0xbe, 0x17, 0x3a, 0x41, 0xbe, 0x31, 0x53, 0x7a, 0xbe,
  0x9d, 0x8e, 0xb0, 0xbe, 0xec, 0x54, 0x1d, 0xbe, 0x62, 0x70, 0x79, 0x3e,
  0xca, 0x2e, 0x46, 0xbe, 0x2e, 0xc7, 0xe7, 0xbd, 0xad, 0xec, 0x44, 0xbe,
  0xa8, 0x21, 0x3a, 0xbd, 0xdc, 0x33, 0x10, 0xbe, 0x9c, 0xd6, 0x5b, 0xbe,
  0xd7, 0xd7, 0x2c, 0xbe, 0xf9, 0x5c, 0x83, 0xbe, 0x54, 0xa0, 0x96, 0x3d,
  0xbf, 0xf5, 0x43, 0xbd, 0xe7, 0xd9, 0x0d, 0x3d, 0x5f, 0x1e, 0x43, 0x3c,
  0x8d, 0x87, 0xa9, 0x3d, 0x68, 0x15, 0xf4, 0xbd, 0x17, 0x16, 0x54, 0x3c,
  0x15, 0x2c, 0x8b, 0xbd, 0x6e, 0x73, 0x2e, 0xbe, 0xc2, 0x03, 0x2f, 0x3d,
  0x8c, 0xe2, 0x0b, 0x3e, 0x81, 0x0d, 0x21, 0x3d, 0x1d, 0x6e, 0x62, 0x3e,
  0x69, 0xf9, 0x84, 0xbe, 0xf4, 0x1b, 0x98, 0x3d, 0x06, 0x90, 0x91, 0x3d,
  0x94, 0x72, 0xab, 0xbc, 0x9f, 0xb3, 0x64, 0x3e, 0x95, 0xc4, 0x58, 0xbd,
  0x49, 0x9b, 0xbc, 0x3c, 0x5d, 0xad, 0x54, 0xbe, 0x50, 0x93, 0xab, 0xbd,
  0xa4, 0x16, 0xa3, 0xbc, 0xac, 0x93, 0x42, 0x3e, 0xa0, 0xf5, 0x21, 0x3e,
  0x3d, 0x02, 0x95, 0x3d, 0x07, 0x4a, 0x9b, 0xbd, 0x56, 0xeb, 0x1c, 0x3e,
  0xa3, 0xaf, 0xcb, 0x3d, 0xa9, 0xc4, 0xb7, 0xbc, 0x1c, 0x9a, 0x84, 0x3d,
  0x40, 0x04, 0x15, 0x3d, 0x66, 0x9e, 0x96, 0xbe, 0x63, 0x8a, 0x31, 0x3e,
  0x36, 0x39, 0x76, 0x3e, 0x2e, 0x5f, 0x77, 0xbd, 0x90, 0x86, 0x42, 0xbe,
  0x1d, 0xf6, 0x1d, 0xba, 0x71, 0xa2, 0xa7, 0x3e, 0x97, 0x10, 0x6c, 0xbe,
  0x47, 0xc6, 0x91, 0x3c, 0x45, 0x8a, 0x2d, 0x3e, 0xbb, 0xd9, 0x01, 0x3e,
  0xd4, 0x68, 0x58, 0x3e, 0xe4, 0x22, 0xf1, 0x3d, 0x35, 0x1e, 0x03, 0x3e,
  0x36, 0xdc, 0x14, 0xbf, 0x5d, 0xe8, 0x4d, 0x3d, 0x10, 0x24, 0xb0, 0x3e,
  0xa9, 0xc4, 0x16, 0x3e, 0x9e, 0xfa, 0xb5, 0x3e, 0x5a, 0x43, 0x7e, 0xbe,
  0x77, 0x36, 0xee, 0xbe, 0x7b, 0x74, 0x0a, 0x3e, 0xef, 0xcc, 0x07, 0x3e,
  0x0f, 0xd6, 0xd4, 0x3e, 0x85, 0x42, 0x86, 0x3d, 0xd3, 0x27, 0x71, 0xbe,
  0x00, 0x5d, 0xa2, 0xbe, 0x56, 0xfa, 0x14, 0xbd, 0xcc, 0xa5, 0x10, 0xbe,
  0x06, 0x40, 0x41, 0xbc, 0xf6, 0x50, 0x25, 0xbe, 0x1a, 0xb2, 0x98, 0xbd,
  0x76, 0x69, 0x39, 0xbe, 0x4a, 0xe5, 0xf5, 0xbd, 0xc3, 0xfb, 0x37, 0xbe,
  0xb3, 0x92, 0x44, 0xbe, 0xdc, 0x1f, 0x2f, 0x3e, 0xc5, 0x6e, 0x9a, 0x3d,
  0xb1, 0xf8, 0x26, 0xbe, 0x9c, 0xd1, 0x73, 0xbe, 0x40, 0xd3, 0x88, 0xbe,
  0xef, 0x25, 0x15, 0xbe, 0x5b, 0x57, 0xd2, 0xbe, 0xe2, 0xa1, 0x7d, 0xbd,
  0xc2, 0x10, 0x06, 0xbf, 0x8b, 0x20, 0xb3, 0x3b, 0xb9, 0xdd, 0x7b, 0xbc,
  0xc0, 0xb0, 0x8b, 0xbd, 0x23, 0xc0, 0xfc, 0xbd, 0xbd, 0x26, 0x2a, 0xbd,
  0x01, 0x43, 0x49, 0xbd, 0x41, 0xdd, 0x84, 0xbe, 0xba, 0x81, 0xbd, 0x3d,
  0xd5, 0xbe, 0x3b, 0x3d, 0xd7, 0xfe, 0x69, 0xbe, 0x63, 0xb0, 0xac, 0xbd,
  0xb2, 0x06, 0xd4, 0xbd, 0x8d, 0x89, 0x04, 0xbe, 0xb7, 0x67, 0x00, 0xbf,
  0x5f, 0x5f, 0xf8, 0xbd, 0xb2, 0x17, 0x39, 0xbe, 0x46, 0x00, 0xae, 0xbe,
  0x06, 0x4e, 0xc7, 0xbd, 0x2a, 0xcd, 0x1a, 0xbd, 0x57, 0xf0, 0x12, 0xbe,
  0xe6, 0x20, 0x9f, 0xbe, 0x19, 0xfc, 0xcb, 0x3c, 0xc4, 0xe1, 0x99, 0xbe,
  0xa9, 0x4b, 0xe6, 0x3d, 0x5e, 0xe6, 0x36, 0xbf, 0x96, 0x2b, 0xca, 0xbd,
  0xa8, 0x62, 0x07, 0xbe, 0x0f, 0x81, 0x65, 0x3d, 0x62, 0x3a, 0x0b, 0xbe,
  0x1a, 0x1f, 0xf9, 0xbe, 0x60, 0x0e, 0xf0, 0xbd, 0x0f, 0xc9, 0x17, 0xbe,
  0xae, 0x88, 0x8b, 0xbe, 0x5b, 0xea, 0x51, 0xbe, 0x79, 0xf8, 0xa6, 0xbd,
  0x4c, 0xa9, 0x14, 0x3d, 0x50, 0x49, 0x96, 0xbe, 0xbb, 0xd2, 0xa4, 0x3b,
  0x30, 0x2b, 0xb0, 0xbe, 0xe5, 0xa3, 0x16, 0x3e, 0x74, 0xa1, 0xc7, 0xbe,
  0xfa, 0xc7, 0x0e, 0xbe, 0x4e, 0xb7, 0xe8, 0xbd, 0x77, 0x15, 0x56, 0x3d,
  0x3d, 0x93, 0xb7, 0x39, 0x6e, 0xfc, 0x52, 0xbe, 0x90, 0xd4, 0x6e, 0xbe,
  0xe2, 0x8a, 0xce, 0x3d, 0x6e, 0xfa, 0x77, 0xbe, 0x1a, 0xeb, 0x80, 0xbd,
  0xe7, 0xbc, 0xfd, 0xbd, 0xa1, 0xa4, 0x91, 0xbd, 0xa2, 0x60, 0x99, 0xbe,
  0x0d, 0x5b, 0x4c, 0xbe, 0x95, 0x37, 0x85, 0x3e, 0x46, 0xe4, 0x17, 0xbe,
  0xfd, 0xbf, 0x09, 0xbf, 0x6b, 0xc1, 0x53, 0x3e, 0x8c, 0x39, 0xe8, 0x3d,
  0x15, 0x62, 0x9f, 0xbe, 0xad, 0x82, 0xd5, 0x3d, 0x09, 0x61, 0xe9, 0x3d,
  0xea, 0x41, 0xb3, 0x3d, 0x27, 0xa6, 0x31, 0x3e, 0xf3, 0x19, 0xdd, 0xbd,
  0x7b, 0xed, 0xc3, 0xbc, 0x61, 0x5b, 0xfb, 0xbb, 0xcb, 0x6c, 0x37, 0x3d,
  0xf0, 0xa7, 0xff, 0x3d, 0x38, 0xd6, 0x87, 0x3e, 0xfe, 0x8c, 0x99, 0xbd,
  0x92, 0xdc, 0x09, 0xbe, 0xc7, 0x07, 0xcb, 0x3d, 0xe7, 0xed, 0x11, 0x3e,
  0xe8, 0x3a, 0x1a, 0xbd, 0x7f, 0x6f, 0x08, 0xbe, 0xad, 0xab, 0xc1, 0xbe,
  0xdc, 0x2e, 0x14, 0xbd, 0xdc, 0x58, 0x97, 0xbe, 0xdf, 0x40, 0x79, 0xbe,
  0x6c, 0xed, 0xd4, 0x3e, 0xf2, 0x8c, 0xc9, 0x3d, 0xac, 0x39, 0x15, 0xbe,
  0x58, 0x0b, 0x42, 0xbe, 0x78, 0x00, 0x5f, 0xbe, 0xc7, 0x83, 0x19, 0xbc,
  0xd7, 0xec, 0xd8, 0x3e, 0x5e, 0x31, 0x7a, 0xbd, 0xb0, 0xfc, 0xa6, 0x3d,
  0x67, 0xf4, 0x86, 0xbe, 0x3c, 0x73, 0xc7, 0xbd, 0x47, 0xb9, 0x81, 0xbe,
  0xae, 0x39, 0x54, 0xbe, 0x6c, 0xf3, 0x47, 0x3e, 0xda, 0x45, 0xbc, 0xbe,
  0x9b, 0x97, 0x09, 0x3e, 0xac, 0x3d, 0x44, 0x3e, 0x79, 0x23, 0xac, 0xbe,
  0x51, 0xab, 0xa4, 0xbd, 0xd7, 0x36, 0x11, 0x3e, 0xba, 0xd3, 0x6b, 0xbe,
  0x4a, 0x9c, 0x1f, 0xbe, 0x42, 0x13, 0x70, 0x3e, 0x86, 0x63, 0x1c, 0xbe,
  0x4d, 0x92, 0x12, 0x3e, 0x66, 0x32, 0xbf, 0x3d, 0x8f, 0x6a, 0x54, 0xbe,
  0xbc, 0xd0, 0x9e, 0xbd, 0xae, 0x79, 0x97, 0xbe, 0xf9, 0xe1, 0x88, 0x3e,
  0xf9, 0xca, 0x08, 0xbe, 0xd4, 0xda, 0x54, 0x3e, 0xbf, 0xc8, 0xce, 0x3c,
  0xbe, 0x9b, 0x26, 0xbe, 0x9a, 0xe5, 0x04, 0xbd, 0xa3, 0xb9, 0x29, 0xbd,
  0xaf, 0xa1, 0xa9, 0x3e, 0x5b, 0xbb, 0x60, 0xbe, 0xce, 0xcc, 0xc6, 0x3e,
  0xe9, 0x69, 0x12, 0xbe, 0x90, 0x2e, 0x71, 0x3e, 0x62, 0xbf, 0x34, 0x3e,
  0xb3, 0x19, 0x23, 0xbe, 0x71, 0x11, 0x19, 0xbe, 0x87, 0xa9, 0xb1, 0xbe,
  0xd4, 0x87, 0xb1, 0x3e, 0x68, 0x7e, 0x80, 0xbd, 0x9a, 0x84, 0xe5, 0x3d,
  0x20, 0x88, 0x9e, 0x3d, 0xb1, 0x0b, 0x1d, 0xbe, 0x21, 0xfb, 0xbf, 0xbc,
  0x73, 0x5f, 0x8a, 0xbe, 0x5c, 0x4f, 0xb0, 0x3e, 0x4e, 0x2e, 0x0c, 0x3e,
  0xd2, 0x4a, 0x16, 0x3e, 0xc1, 0x83, 0x0a, 0xbd, 0x35, 0x60, 0xb7, 0x3e,
  0x35, 0x78, 0x30, 0xb9, 0xec, 0x66, 0x43, 0x3e, 0x19, 0x90, 0x76, 0x3d,
  0xa9, 0xb7, 0xdf, 0xbe, 0x20, 0xc5, 0x5c, 0x3e, 0x23, 0x6f, 0xa6, 0xbe,
  0xf2, 0x55, 0x09, 0xbe, 0x75, 0x00, 0x6d, 0x3e, 0x66, 0xf9, 0x4e, 0xbe,
  0x47, 0x63, 0x52, 0xbd, 0x0c, 0x66, 0x9f, 0xbe, 0x12, 0xee, 0x11, 0xbe,
  0x7f, 0x04, 0x38, 0xbe, 0xd5, 0xc5, 0xda, 0x3e, 0xfd, 0xe1, 0x5e, 0xbe,
  0x6b, 0xd1, 0x94, 0x3e, 0x92, 0xfc, 0xa7, 0xbe, 0xde, 0x49, 0x9f, 0xbe,
  0xc8, 0xe7, 0x82, 0xbd, 0x96, 0x92, 0xa1, 0xbe, 0xa0, 0xcb, 0xce, 0x3d,
  0x2e, 0xea, 0x56, 0xbe, 0xb4, 0xe8, 0xa7, 0xbe, 0xcc, 0x18, 0x02, 0x3e,
  0x06, 0x51, 0x80, 0xbe, 0x64, 0x24, 0x1b, 0xbd, 0x5f, 0x03, 0xce, 0xbe,
  0x83, 0x08, 0x1f, 0xbe, 0x74, 0x80, 0x64, 0x3d, 0xc1, 0x8b, 0x9b, 0x3e,
  0x5a, 0xb9, 0x78, 0x3e, 0x9f, 0x60, 0x8d, 0x3e, 0x0d, 0x16, 0x14, 0xbe,
  0xae, 0x78, 0x6e, 0x3d, 0xf2, 0xe8, 0x28, 0xbe, 0x13, 0x78, 0xeb, 0x3c,
  0xc6, 0x32, 0x04, 0x3d, 0x49, 0x15, 0x1e, 0xbe, 0xa2, 0x52, 0x5d, 0xbd,
  0xd0, 0x31, 0xea, 0x3d, 0x81, 0x87, 0x86, 0xbe, 0x15, 0x93, 0x10, 0x3d,
  0x37, 0x3f, 0x8e, 0x3e, 0x2a, 0x75, 0x85, 0xbe, 0xea, 0x1f, 0xd5, 0xbe,
  0xa0, 0x3a, 0xf7, 0x3d, 0x9c, 0xb4, 0xff, 0x3c, 0xf2, 0xdf, 0x39, 0x3d,
  0x07, 0x60, 0xa4, 0x3d, 0xdd, 0x66, 0x8a, 0xbd, 0x08, 0x8e, 0x95, 0xbe,
  0xc5, 0x3c, 0x50, 0xbd, 0xfd, 0x03, 0x00, 0xbc, 0xab, 0x54, 0x86, 0xbe,
  0xcd, 0x34, 0x44, 0xbe, 0x29, 0x40, 0xf8, 0x3d, 0x95, 0x7e, 0x23, 0x3e,
  0x28, 0x8c, 0x25, 0xbe, 0x7c, 0x7f, 0x93, 0xbd, 0x84, 0x49, 0x44, 0xbd,
  0x05, 0x6f, 0x80, 0xbe, 0x84, 0x7b, 0xae, 0x3e, 0x13, 0xd5, 0x84, 0xbc,
  0x41, 0x49, 0xb5, 0xbc, 0x8a, 0x98, 0x5a, 0xbe, 0x3e, 0x33, 0x6f, 0xbe,
  0xbd, 0x91, 0x66, 0xbe, 0x87, 0x91, 0xdc, 0xbd, 0x9d, 0xdc, 0x3d, 0x3e,
  0xc0, 0xaf, 0xba, 0xbd, 0x25, 0x4d, 0x01, 0x3e, 0x79, 0x83, 0x2c, 0xbe,
  0xde, 0x63, 0x89, 0x3e, 0x89, 0x8b, 0x5c, 0xbe, 0x3f, 0x59, 0xa2, 0xbd,
  0x6c, 0x9a, 0x14, 0xbd, 0x4f, 0x26, 0x15, 0xbd, 0x80, 0x34, 0x27, 0x3f,
  0x1e, 0x2d, 0xf7, 0xbd, 0xfc, 0xa4, 0x38, 0xbe, 0x69, 0x7c, 0x42, 0x3e,
  0xb2, 0xc3, 0x97, 0x3d, 0xf4, 0xae, 0x36, 0x3d, 0xe2, 0xd6, 0x5c, 0xbe,
  0x13, 0x1e, 0x27, 0xbd, 0xf0, 0x31, 0x0c, 0xbe, 0x8f, 0x8b, 0xc3, 0xbc,
  0x4f, 0x3b, 0x74, 0xbe, 0x9a, 0xce, 0xe8, 0x3d, 0x07, 0xd5, 0xb7, 0xbe,
  0x18, 0xaf, 0x5c, 0xbd, 0xad, 0xdb, 0x6e, 0xbd, 0xfe, 0x61, 0x2b, 0x3e,
  0x58, 0xe7, 0x58, 0x3f, 0x77, 0xed, 0x2a, 0xbe, 0x4f, 0xd3, 0xbc, 0x3d,
  0xce, 0x63, 0x5b, 0xbe, 0x6b, 0xd4, 0x48, 0x3d, 0x2b, 0x16, 0x10, 0xbe,
  0x7e, 0x13, 0xab, 0x3d, 0x44, 0xb4, 0xa0, 0x3e, 0xb9, 0x5b, 0x68, 0x3d,
  0x5a, 0x7f, 0x1a, 0x3e, 0xab, 0x8c, 0x7e, 0xbe, 0xfc, 0x87, 0xd1, 0xbc,
  0x1a, 0x8c, 0xaa, 0xbe, 0x18, 0xb9, 0x98, 0xbd, 0x92, 0x7d, 0x23, 0x3e,
  0xf4, 0x01, 0xb7, 0x3d, 0xb9, 0x05, 0x6d, 0x3f, 0x99, 0x3f, 0x26, 0xbd,
  0x68, 0x4e, 0xf3, 0xbc, 0x9a, 0xe4, 0x5b, 0xbe, 0xc6, 0x2d, 0x58, 0xbe,
  0x18, 0x9e, 0x7d, 0xbe, 0xc0, 0xf8, 0x4f, 0xbe, 0x88, 0x24, 0xc7, 0xbd,
  0x66, 0x25, 0xb0, 0x3c, 0x62, 0x1f, 0x04, 0xbe, 0x15, 0xd3, 0xb1, 0x3d,
  0xd5, 0x2c, 0x1a, 0x3d, 0xc4, 0x00, 0x5c, 0xbe, 0x12, 0xde, 0xda, 0x3c,
  0x92, 0x03, 0x52, 0x3d, 0x67, 0x7d, 0x2f, 0x3d, 0xc5, 0x5c, 0x4a, 0x3f,
  0xfc, 0x09, 0x17, 0xbe, 0xa9, 0x97, 0x0f, 0x3e, 0xc8, 0x44, 0x1a, 0x3d,
  0x49, 0xd8, 0xfa, 0x3d, 0x0d, 0x32, 0x1f, 0xbc, 0x62, 0x4d, 0x6c, 0xbd,
  0x9e, 0x0b, 0xb3, 0xbd, 0x6b, 0x11, 0x57, 0x3c, 0x7f, 0x92, 0x21, 0xbd,
  0x16, 0x6d, 0xeb, 0xbd, 0xdd, 0xb8, 0x61, 0x3e, 0x2d, 0x45, 0xb7, 0xbe,
  0xcf, 0xc3, 0x45, 0xbe, 0xe0, 0xf4, 0x01, 0xbe, 0xe4, 0x3e, 0xb1, 0xbd,
  0x31, 0xa0, 0x27, 0x3f, 0x16, 0x70, 0x18, 0xbe, 0xd0, 0xd1, 0x1a, 0xbd,
  0x4e, 0x5f, 0xc3, 0x3d, 0x31, 0x9c, 0xab, 0xb9, 0xad, 0xf8, 0x67, 0xbb,
  0x5b, 0x07, 0x59, 0x3c, 0xb5, 0xfb, 0xfa, 0xbd, 0xdb, 0xc5, 0x62, 0xbe,
  0x11, 0x86, 0x5c, 0x3c, 0x6e, 0xf2, 0x62, 0xbd, 0xe5, 0xff, 0x80, 0x3e,
  0x89, 0x83, 0xb3, 0xbe, 0x7e, 0xd4, 0x93, 0xbd, 0xca, 0xf6, 0x9d, 0xbc,
  0x37, 0xff, 0x2f, 0xbe, 0x93, 0xd1, 0x50, 0xbe, 0x65, 0x4f, 0x26, 0xbe,
  0x0d, 0xd5, 0x89, 0xbe, 0xd8, 0xf6, 0x0f, 0xbe, 0xbf, 0xc9, 0x50, 0x3c,
  0x98, 0xba, 0x6e, 0xbd, 0xdf, 0x7d, 0x4b, 0xbe, 0x2d, 0x58, 0x5d, 0xbe,
  0xeb, 0x8d, 0xbc, 0xbd, 0x2f, 0x3d, 0x75, 0x3d, 0x9e, 0x72, 0x03, 0x3d,
  0xf5, 0xd0, 0x4a, 0x3d, 0x5e, 0x82, 0xd2, 0xbe, 0xc7, 0x28, 0xba, 0x3d,
  0x49, 0x92, 0xbe, 0xbd, 0xae, 0x32, 0x8d, 0x3d, 0xf6, 0x0c, 0x4f, 0x3f,
  0x6a, 0x3c, 0x7c, 0xbe, 0x87, 0x25, 0x2c, 0xbe, 0xc6, 0x3b, 0x8f, 0x3d,
  0x3e, 0xa5, 0x1a, 0xbe, 0x4b, 0x5d, 0x32, 0x3d, 0x2a, 0x18, 0xa0, 0x3d,
  0x42, 0xeb, 0x82, 0x3d, 0xe7, 0x23, 0x7b, 0xbd, 0xa9, 0x2f, 0xdc, 0xbb,
  0xc7, 0x5b, 0x43, 0xbe, 0x3d, 0x7d, 0xe2, 0x3d, 0x18, 0xc6, 0xcc, 0xbe,
  0x39, 0xdc, 0x48, 0xbe, 0xea, 0x26, 0xdf, 0xbd, 0xd0, 0xed, 0xdf, 0x3d,
  0xdc, 0x44, 0xef, 0x3e, 0x99, 0xc0, 0x27, 0xbe, 0x35, 0xff, 0xa1, 0xbd,
  0x8c, 0xe3, 0xf4, 0xbc, 0x2f, 0xe2, 0xa7, 0x3d, 0x18, 0x65, 0xe9, 0x3c,
  0xc0, 0x6c, 0x3f, 0xbe, 0x7c, 0x7d, 0xd9, 0xbc, 0xed, 0xb6, 0x53, 0xbd,
  0xad, 0x5e, 0x82, 0xbd, 0xad, 0x95, 0xa2, 0xbd, 0x37, 0xd2, 0x02, 0xbe,
  0xb4, 0x2b, 0x5e, 0xbe, 0xdb, 0x80, 0xdf, 0xbc, 0x0e, 0xf0, 0x41, 0xbe,
  0x91, 0xae, 0x94, 0xbb, 0xa3, 0x19, 0x45, 0x3f, 0xbf, 0x3b, 0x96, 0x3d,
  0xd0, 0x59, 0xef, 0x3c, 0x82, 0x76, 0xde, 0xba, 0xc0, 0x70, 0xde, 0xbd,
  0xa2, 0x6d, 0x8d, 0xbe, 0x09, 0x78, 0xf1, 0xbd, 0xda, 0xad, 0x7e, 0x3d,
  0x0d, 0xd9, 0x0d, 0xbd, 0x71, 0x12, 0x8e, 0xbc, 0x78, 0x2f, 0x7d, 0xbe,
  0xd0, 0xb2, 0x3c, 0x3e, 0x14, 0xdb, 0x95, 0xbe, 0x33, 0x80, 0x99, 0xbc,
  0xfe, 0x03, 0x2a, 0xbe, 0xdb, 0x11, 0x9d, 0xbd, 0x56, 0x39, 0xa6, 0x3f,
  0x64, 0xff, 0x34, 0xbe, 0xc3, 0xde, 0xf5, 0xbc, 0xc9, 0xd4, 0xbb, 0xbd,
  0xf2, 0x85, 0xaa, 0x3d, 0xaf, 0x5f, 0x1a, 0x3d, 0xc0, 0x80, 0xcd, 0xbd,
  0x67, 0x0d, 0x46, 0xbe, 0xb9, 0xfd, 0xba, 0x3d, 0x16, 0xec, 0x48, 0x3d,
  0x72, 0x58, 0xd1, 0x3d, 0xe5, 0x23, 0x31, 0xbe, 0x01, 0xd4, 0xb1, 0xbe,
  0xef, 0x83, 0xf8, 0xbd, 0xdd, 0x09, 0x47, 0xbe, 0x0e, 0x37, 0x5c, 0xbe,
  0xb6, 0x14, 0xfa, 0x3e, 0x7b, 0xeb, 0x0e, 0xbb, 0x15, 0xac, 0x01, 0x3d,
  0x66, 0xea, 0x0a, 0xbe, 0xfa, 0xc4, 0x8b, 0xbd, 0x45, 0x7e, 0x82, 0x3b,
  0x33, 0x8b, 0xad, 0xbd, 0xc1, 0x2d, 0x7d, 0x3c, 0x73, 0x65, 0x41, 0x3d,
  0x95, 0x9d, 0x40, 0xbe, 0x45, 0xef, 0xdf, 0xbd, 0x9c, 0x95, 0x35, 0xbd,
  0x16, 0x84, 0x7a, 0xbe, 0x99, 0x4c, 0x48, 0x3c, 0xa2, 0xda, 0x41, 0xbe,
  0xa4, 0x41, 0x14, 0x3d, 0xf3, 0xe2, 0xcf, 0x3e, 0xb9, 0xae, 0x2f, 0x3c,
  0x52, 0x68, 0x38, 0x3e, 0x74, 0x20, 0x75, 0xbb, 0xe0, 0xb8, 0x0f, 0xbe,
  0xa8, 0x5a, 0xfb, 0x3c, 0xc7, 0xc9, 0x78, 0x3d, 0xef, 0x6a, 0x72, 0xbd,
  0x90, 0x26, 0x0b, 0xbe, 0xe7, 0x42, 0xdd, 0xbd, 0xde, 0xea, 0x8c, 0xbe,
  0xd2, 0xa2, 0xe5, 0x3e, 0xe1, 0x17, 0x7a, 0xbe, 0xa0, 0xe3, 0x1e, 0xbe,
  0x8a, 0x98, 0x3f, 0xbe, 0xfd, 0xc1, 0x05, 0x3c, 0x0f, 0x87, 0xfb, 0x3d,
  0x76, 0x82, 0x06, 0xbe, 0x72, 0xd3, 0xd8, 0xbb, 0x8f, 0x9a, 0x1f, 0x3c,
  0xb5, 0x5f, 0x18, 0x3e, 0x64, 0x67, 0xb3, 0x3d, 0xde, 0x2a, 0xb3, 0x3d,
  0xc2, 0xd4, 0x94, 0xbc, 0x5a, 0xc7, 0xd3, 0xbd, 0x93, 0xbf, 0x76, 0xbd,
  0xdd, 0x7c, 0xd9, 0x3d, 0x0c, 0x8c, 0xa2, 0xbd, 0xce, 0x90, 0x34, 0xbe,
  0xb1, 0x0c, 0x40, 0xbe, 0xe8, 0xae, 0xc4, 0xbd, 0x44, 0xf0, 0x6c, 0x3e,
  0xbf, 0x2f, 0xba, 0x3b, 0xde, 0x18, 0x03, 0x3e, 0x9f, 0x47, 0xc4, 0xbb,
  0xa6, 0xbc, 0x04, 0xbe, 0x74, 0x30, 0x90, 0x3d, 0x15, 0x70, 0x30, 0xbe,
  0x71, 0xf1, 0x5e, 0x3e, 0x7d, 0x40, 0xb1, 0xbd, 0x2c, 0x9f, 0xc9, 0x3d,
  0xeb, 0x8a, 0x95, 0x3d, 0x9d, 0xfc, 0x8b, 0xbe, 0x7a, 0x1c, 0x31, 0x3d,
  0x42, 0xde, 0xaf, 0xbe, 0xe8, 0x7b, 0x54, 0xbe, 0xc8, 0xc2, 0x22, 0x3d,
  0x68, 0xad, 0x20, 0x3e, 0x7a, 0x61, 0x18, 0xbe, 0x21, 0x5f, 0x04, 0xbd,
  0x35, 0x0b, 0xd4, 0x3d, 0x0a, 0x16, 0xbd, 0x3c, 0xa8, 0xe5, 0x8b, 0xbe,
  0xe8, 0xa2, 0x41, 0xbd, 0xdc, 0x31, 0x68, 0x3e, 0x0b, 0xd9, 0x60, 0x3e,
  0x15, 0x88, 0x8b, 0x3e, 0x8c, 0x3d, 0xc5, 0xbd, 0x75, 0x2d, 0x4a, 0x3e,
  0xb8, 0x5b, 0x87, 0xbc, 0x08, 0x72, 0x51, 0xbe, 0x4d, 0x3e, 0x12, 0x3d,
  0xf2, 0xb5, 0x8e, 0xbe, 0x35, 0x21, 0x22, 0xbd, 0xeb, 0xcb, 0x80, 0xbd,
  0xab, 0x8e, 0xcf, 0xbd, 0x7b, 0x4e, 0xd7, 0x3e, 0xa3, 0x13, 0xc7, 0xbd,
  0x0b, 0xa2, 0x71, 0xbd, 0xf1, 0x06, 0xc0, 0x3d, 0xdd, 0xdf, 0x66, 0x3e,
  0xf2, 0x2b, 0xa0, 0xbd, 0x52, 0x28, 0x80, 0xbd, 0x23, 0x7c, 0x54, 0x3e,
  0x1d, 0x77, 0x72, 0x3e, 0x8e, 0x25, 0x7b, 0xbc, 0x14, 0xe2, 0xf0, 0xbe,
  0x16, 0x9c, 0xaf, 0x3e, 0x38, 0x0d, 0x62, 0x3e, 0xca, 0x6d, 0x87, 0xbc,
  0xb9, 0xe0, 0x62, 0xbd, 0xc7, 0x79, 0x4b, 0xbd, 0xc7, 0xe6, 0x7b, 0x3e,
  0xd2, 0x84, 0xee, 0x3d, 0xbe, 0x0d, 0x23, 0xbd, 0x6e, 0xeb, 0x08, 0x3e,
  0xed, 0x83, 0xf7, 0xbd, 0xf7, 0xc7, 0x87, 0xbd, 0x6e, 0x83, 0x76, 0xbe,
  0xfc, 0xee, 0x11, 0x3e, 0x14, 0xcd, 0x4e, 0x3e, 0xbc, 0xb0, 0xd1, 0xbc,
  0x36, 0xf8, 0x5c, 0xbe, 0x7d, 0x67, 0x71, 0x3e, 0x31, 0x6a, 0xcc, 0xbc,
  0xa4, 0xa7, 0x4b, 0x3d, 0xad, 0xba, 0x85, 0xbe, 0x55, 0x26, 0x23, 0xbe,
  0xb1, 0xba, 0x65, 0x3e, 0xed, 0xe1, 0xbe, 0xbc, 0x11, 0x7c, 0x28, 0x3e,
  0x93, 0x78, 0x16, 0x3d, 0x27, 0x3f, 0x01, 0xbc, 0x77, 0xfe, 0x26, 0xbe,
  0xed, 0xb0, 0x6c, 0x3d, 0x36, 0x07, 0x49, 0x3d, 0x91, 0xf1, 0x6c, 0xbe,
  0x9b, 0x03, 0x76, 0x3e, 0x22, 0x26, 0x2b, 0xbe, 0x87, 0x5f, 0x8c, 0xbd,
  0x04, 0x0c, 0x27, 0xbe, 0xd2, 0x08, 0x17, 0xbc, 0xa7, 0xe6, 0xb6, 0x3c,
  0xc8, 0xea, 0x97, 0xbd, 0x03, 0x37, 0x75, 0x3d, 0xd1, 0x7d, 0x2a, 0xbc,
  0xe4, 0x28, 0x79, 0xbe, 0x50, 0x86, 0x51, 0x3e, 0xed, 0x6c, 0xbf, 0x3b,
  0xe0, 0xe2, 0xa7, 0xbd, 0x3f, 0x18, 0xbe, 0xbd, 0x78, 0x9f, 0x14, 0x3d,
  0x25, 0x0c, 0x15, 0xbd, 0x40, 0x34, 0x7c, 0x3e, 0x04, 0xe6, 0x82, 0xbe,
  0x82, 0xbe, 0x7d, 0x3e, 0x4e, 0x18, 0x2f, 0x3e, 0x8d, 0x50, 0xe0, 0x3d,
  0xbb, 0x01, 0x3f, 0x3d, 0x20, 0x12, 0x8b, 0xbd, 0xbb, 0x0d, 0x53, 0xbe,
  0xb4, 0x47, 0xe9, 0xbd, 0xbd, 0x99, 0x9a, 0xbb, 0x23, 0xe8, 0xd7, 0xbd,
  0xd8, 0xc8, 0x91, 0x3c, 0x7f, 0x68, 0x5a, 0x3d, 0x9a, 0xfd, 0x86, 0x3e,
  0xde, 0xdb, 0x95, 0x3e, 0x6c, 0x45, 0xe0, 0xbd, 0x37, 0xad, 0xcf, 0xbe,
  0x19, 0xe6, 0xc8, 0x3d, 0x77, 0xa9, 0x71, 0x3e, 0x05, 0x63, 0xee, 0x3d,
  0x0d, 0x39, 0x30, 0x3f, 0xde, 0x12, 0x80, 0xbe, 0xb6, 0x41, 0x51, 0xbe,
  0x4f, 0x44, 0x48, 0x3d, 0xff, 0x07, 0xac, 0x3e, 0xd1, 0x48, 0xc1, 0x3e,
  0x31, 0x94, 0xa0, 0xbc, 0xc0, 0xd7, 0x80, 0xbe, 0x88, 0xb0, 0x08, 0xbe,
  0x47, 0x5f, 0x8a, 0xbd, 0x7e, 0xf8, 0x3c, 0xbc, 0x7e, 0x44, 0x17, 0x3d,
  0x56, 0x0a, 0xb5, 0xbe, 0x29, 0x0f, 0x9b, 0x3b, 0xe0, 0xeb, 0x15, 0xbe,
  0xd6, 0x1c, 0x2b, 0x3d, 0x6a, 0xc4, 0x89, 0xbd, 0x24, 0xbc, 0x79, 0xbd,
  0x10, 0x81, 0xe8, 0x3d, 0xd5, 0xf7, 0x5a, 0xbc, 0x45, 0x25, 0xb1, 0xbe,
  0x23, 0x98, 0x09, 0xbd, 0x3f, 0x11, 0x18, 0xbe, 0x4d, 0x2c, 0x20, 0xbe,
  0x2c, 0xcb, 0xbe, 0xbe, 0x80, 0x6b, 0x83, 0xbd, 0xf0, 0x54, 0xf7, 0xbd,
  0xa0, 0x38, 0x5b, 0x3c, 0x33, 0x88, 0x5f, 0xbe, 0x9d, 0x4c, 0x4a, 0xbd,
  0xd1, 0x9b, 0x9d, 0xbd, 0x3e, 0xc0, 0xed, 0xbc, 0xa4, 0x1b, 0x08, 0xbe,
  0xc0, 0x52, 0x09, 0xbd, 0xd7, 0x5c, 0x0d, 0x3e, 0x2a, 0x96, 0xfe, 0x3d,
  0xf1, 0x4f, 0x08, 0xbe, 0xdb, 0x1f, 0x19, 0xbe, 0xa5, 0x90, 0x96, 0xbd,
  0x85, 0xc5, 0x33, 0xbe, 0x3f, 0x8b, 0x2a, 0xbf, 0xb7, 0xb9, 0x3a, 0xbe,
  0xfe, 0xb5, 0x2f, 0xbe, 0xae, 0xfb, 0x97, 0xbe, 0x19, 0x71, 0x20, 0x3c,
  0x54, 0x6a, 0x9e, 0xbd, 0x2a, 0xfc, 0x56, 0x3d, 0x87, 0xa4, 0x0c, 0xbe,
  0xc5, 0xcd, 0x28, 0xbe, 0x4e, 0x44, 0xe6, 0xbd, 0xf3, 0xdf, 0x34, 0x3d,
  0x5f, 0x48, 0x17, 0xbf, 0x90, 0x3b, 0x58, 0x3d, 0x1d, 0x7f, 0xf3, 0x3d,
  0x29, 0x98, 0x11, 0xbe, 0x86, 0xdd, 0xd4, 0xbd, 0xd0, 0x5f, 0xea, 0xbc,
  0x3f, 0x41, 0xaf, 0xbd, 0xe7, 0xd9, 0x90, 0x3e, 0x7f, 0xbb, 0xb4, 0xbe,
  0x2f, 0x83, 0x17, 0x3c, 0x33, 0xc5, 0x27, 0xbd, 0x47, 0x76, 0x6a, 0xbb,
  0x18, 0x67, 0x00, 0x3e, 0x2c, 0x43, 0xd1, 0xbd, 0x7b, 0x28, 0x89, 0x3e,
  0xa4, 0x1a, 0x08, 0x3d, 0xe6, 0x38, 0xb6, 0xbe, 0x6e, 0x40, 0x92, 0x3e,
  0x63, 0xe9, 0x45, 0xbe, 0xfc, 0x1c, 0x4c, 0x3d, 0x79, 0x9b, 0x3a, 0x3e,
  0x67, 0xa5, 0x50, 0x3d, 0x7b, 0x77, 0xf2, 0x3d, 0x05, 0x40, 0x92, 0x3e,
  0x63, 0x28, 0x4b, 0xbe, 0x4d, 0xd8, 0x3d, 0xbe, 0x69, 0xf6, 0x11, 0x3d,
  0xea, 0x8d, 0x75, 0x3d, 0x77, 0xb3, 0x81, 0x3e, 0x89, 0xa1, 0xe7, 0xbd,
  0xed, 0x91, 0x22, 0xbd, 0xaa, 0xde, 0x31, 0xbe, 0x92, 0x6f, 0x58, 0xbe,
  0x88, 0x84, 0x58, 0x3d, 0x11, 0x4f, 0x9a, 0x3e, 0x25, 0xd1, 0x0f, 0x3e,
  0xfd, 0xbd, 0x4e, 0xbe, 0xe0, 0x52, 0xa9, 0xbd, 0x28, 0x6e, 0xfb, 0xbd,
  0x3d, 0xab, 0x60, 0xbe, 0xd0, 0x2c, 0x23, 0x3d, 0x8d, 0xed, 0x3a, 0xbe,
  0x44, 0x72, 0xc4, 0xbd, 0xd9, 0x97, 0xcc, 0x3c, 0x6b, 0xee, 0x86, 0x3d,
  0xfb, 0xd3, 0x84, 0xbd, 0x40, 0x7a, 0x8c, 0x3d, 0xd4, 0xd1, 0xc1, 0xbc,
  0xd3, 0x92, 0x0a, 0xbc, 0x22, 0x66, 0xe8, 0xbd, 0xab, 0xcb, 0x30, 0x3d,
  0xac, 0x12, 0xc1, 0x3d, 0xa0, 0x7a, 0x70, 0xbe, 0xfd, 0x23, 0xcf, 0xbd,
  0xef, 0x43, 0x03, 0x3d, 0x42, 0x7e, 0x5c, 0xbd, 0x2a, 0x3b, 0x23, 0x3e,
  0x89, 0x19, 0x99, 0x3d, 0x0e, 0x77, 0x12, 0xbe, 0x08, 0x90, 0x40, 0xbe,
  0x74, 0xb1, 0x9f, 0xbd, 0xab, 0x30, 0xd4, 0xbd, 0x8f, 0x1c, 0x28, 0x3f,
  0x6d, 0xdb, 0xf6, 0x3b, 0x76, 0x28, 0xfd, 0x3d, 0x49, 0x08, 0xb7, 0xbd,
  0x55, 0x27, 0x02, 0xbe, 0xbd, 0xcb, 0xb0, 0x3d, 0x20, 0xbe, 0xed, 0xbc,
  0xae, 0x1b, 0x88, 0xbc, 0xe2, 0x77, 0xab, 0xbd, 0x56, 0x88, 0xd5, 0x3d,
  0x54, 0x1d, 0x33, 0xbe, 0x34, 0x9c, 0xca, 0xbc, 0x7e, 0x75, 0x2c, 0xbe,
  0x5c, 0x93, 0xe6, 0x3c, 0x8b, 0x0b, 0xf4, 0x3c, 0x2f, 0x56, 0x4d, 0x3d,
  0x9d, 0xab, 0xc1, 0x3e, 0x30, 0x19, 0x2f, 0x3d, 0xe5, 0xb6, 0x0d, 0xbd,
  0x53, 0x44, 0x51, 0xbe, 0xcb, 0x2b, 0x28, 0x3e, 0xf4, 0xc9, 0x3b, 0xbc,
  0x85, 0xe4, 0xc7, 0x3d, 0xff, 0x1e, 0x8b, 0x3e, 0x7a, 0x48, 0x30, 0x3c,
  0x0b, 0x65, 0x66, 0xbd, 0x3a, 0x25, 0x7d, 0xbe, 0xf4, 0xd8, 0x3f, 0x3e,
  0x37, 0xf5, 0x9b, 0xbd, 0x09, 0xb9, 0x09, 0xbe, 0x48, 0x5d, 0xe0, 0x3d,
  0x0e, 0x26, 0x4f, 0x3b, 0xb2, 0xf8, 0x64, 0x3f, 0xd4, 0xff, 0x68, 0xbe,
  0xec, 0xb6, 0xda, 0x3d, 0xe0, 0x20, 0x4a, 0xbc, 0x20, 0x9e, 0xc7, 0x3d,
  0x61, 0x90, 0x90, 0x3d, 0x91, 0x5e, 0x3e, 0xbe, 0x1e, 0xfc, 0x0b, 0x3e,
  0x8a, 0x09, 0xd7, 0xbd, 0x09, 0xbb, 0xd0, 0x3d, 0x3f, 0x5d, 0x22, 0xbe,
  0x73, 0xb1, 0x1b, 0x3e, 0xdb, 0x87, 0x13, 0xbe, 0x8b, 0x6b, 0x44, 0xbe,
  0x07, 0x09, 0x80, 0x3e, 0x8e, 0x35, 0x2b, 0x3e, 0x10, 0xda, 0x4b, 0x3f,
  0x7c, 0x84, 0x2c, 0xbd, 0x60, 0xfd, 0x8e, 0xbd, 0xd7, 0x22, 0xc7, 0xbc,
  0x71, 0xd7, 0x17, 0x3e, 0xab, 0x04, 0xd5, 0x3d, 0xbf, 0x43, 0x4a, 0xbe,
  0x63, 0x24, 0xce, 0x3d, 0xba, 0x5b, 0x26, 0xbe, 0xf6, 0xe9, 0xf0, 0x3c,
  0x60, 0xa9, 0x7f, 0x3e, 0xd6, 0xea, 0x3b, 0x3e, 0xeb, 0x5b, 0x64, 0xbe,
  0x7f, 0x16, 0x2b, 0x3c, 0xa3, 0x46, 0xde, 0xbd, 0x19, 0xbb, 0xeb, 0x3c,
  0x53, 0x6e, 0x5d, 0x3f, 0x5e, 0x54, 0x6e, 0x3e, 0x40, 0xe8, 0xe3, 0xbd,
  0xcf, 0x40, 0xe6, 0xbd, 0x54, 0xb2, 0x3d, 0xbe, 0xda, 0x55, 0x8d, 0xbe,
  0xd3, 0xb0, 0x66, 0xbe, 0x6e, 0x1c, 0x4f, 0x3d, 0x2f, 0xc6, 0x14, 0xbe,
  0xd3, 0xf3, 0x04, 0xbe, 0x26, 0x4f, 0xcd, 0x3c, 0xa4, 0x2d, 0x3a, 0xbe,
  0x98, 0x9d, 0xe4, 0xbd, 0xb3, 0x42, 0x22, 0x3e, 0x35, 0x6b, 0x4c, 0xbe,
  0x92, 0xc0, 0x35, 0x3e, 0xed, 0xc6, 0x00, 0x3f, 0x54, 0x11, 0x15, 0x3e,
  0xb9, 0x4f, 0xca, 0x3d, 0x02, 0x1b, 0xe9, 0x3c, 0xf6, 0xab, 0x27, 0x3e,
  0x58, 0xda, 0x03, 0xbe, 0x1c, 0xba, 0xdf, 0x3c, 0x78, 0x1a, 0x0f, 0xbe,
  0xca, 0x5a, 0x09, 0x3d, 0x6a, 0x88, 0x14, 0x3e, 0x29, 0xd3, 0x37, 0x3e,
  0xf4, 0xdf, 0xe9, 0x3e, 0x1c, 0xac, 0x36, 0xbe, 0xff, 0xed, 0x26, 0xbd,
  0x89, 0x56, 0x8e, 0xbd, 0xc6, 0x0b, 0xb1, 0xbd, 0x13, 0x25, 0xd9, 0x3c,
  0x88, 0x61, 0x34, 0xbe, 0xb3, 0x1f, 0xc1, 0xbd, 0x31, 0x7a, 0x52, 0x3d,
  0x5e, 0x45, 0xa0, 0x3d, 0xaf, 0x04, 0x87, 0xbd, 0x12, 0xe2, 0x35, 0x3d,
  0x1c, 0xfb, 0x19, 0xbe, 0x45, 0x90, 0xd5, 0xbd, 0x5e, 0x54, 0x2b, 0xbe,
  0x70, 0xf7, 0xa3, 0xbe, 0xae, 0x0a, 0xeb, 0x3e, 0xdd, 0x76, 0xd9, 0x3c,
  0x5b, 0x7a, 0x19, 0xbe, 0xf9, 0xf4, 0x62, 0xbe, 0xd6, 0x91, 0x04, 0xbf,
  0x2d, 0xfa, 0xbb, 0xbe, 0x7f, 0xad, 0x31, 0xbd, 0x65, 0x46, 0x00, 0xbf,
  0x95, 0x5c, 0x2f, 0xbd, 0xdb, 0xfc, 0x20, 0xbe, 0x75, 0xa8, 0x02, 0x3f,
  0xd0, 0xc0, 0x92, 0x3e, 0xf6, 0x60, 0x3f, 0xbe, 0x81, 0x76, 0xdd, 0x3d,
  0x33, 0x64, 0x69, 0xbc, 0x07, 0x6d, 0xe7, 0xbe, 0x1a, 0x91, 0xb1, 0x3e,
  0x29, 0x78, 0x6a, 0x3c, 0x30, 0x9f, 0x70, 0xbd, 0xd6, 0x9a, 0x2f, 0xbe,
  0x5c, 0xe2, 0xc5, 0x3e, 0x1c, 0x91, 0xe6, 0xbe, 0x4a, 0xa9, 0xc1, 0x3d,
  0x2d, 0x7c, 0xe7, 0xbd, 0x1e, 0xbb, 0xda, 0xbd, 0x82, 0x9f, 0x23, 0x3d,
  0x83, 0xde, 0xf5, 0x3e, 0xd1, 0x6c, 0xaf, 0x3e, 0x44, 0x49, 0x17, 0xbd,
  0x38, 0x8e, 0x82, 0x3e, 0x21, 0x5c, 0xd3, 0x3e, 0x9e, 0x3b, 0x01, 0x3c,
  0x8e, 0x5e, 0xdf, 0x3e, 0xf1, 0xab, 0xd7, 0x3d, 0x5a, 0x3c, 0x34, 0xbe,
  0x66, 0xc9, 0xcd, 0x3d, 0xb9, 0x5a, 0x31, 0xbe, 0xc1, 0x2f, 0xa5, 0xbe,
  0x67, 0x9f, 0xf8, 0xbd, 0x2c, 0x76, 0x41, 0xbe, 0x31, 0x0d, 0x8b, 0xbd,
  0xa1, 0x57, 0x27, 0x3f, 0x97, 0x8b, 0xcf, 0x3e, 0xd1, 0x6f, 0xef, 0x3e,
  0xf0, 0x12, 0xc7, 0x3d, 0x40, 0x53, 0x14, 0x3e, 0x21, 0x60, 0x88, 0x3e,
  0xce, 0x86, 0xf0, 0xbd, 0xed, 0xc8, 0x4d, 0x3e, 0x1d, 0xed, 0x3a, 0x3d,
  0xd1, 0xa4, 0x46, 0x3b, 0xd9, 0xe4, 0x38, 0xbc, 0xd1, 0x28, 0x8d, 0x3e,
  0xde, 0x56, 0x87, 0xbc, 0x85, 0x91, 0x7b, 0x3c, 0xf6, 0x37, 0x82, 0xbc,
  0x02, 0xe8, 0x40, 0xbe, 0x5d, 0x46, 0xec, 0x3d, 0x0e, 0x15, 0x27, 0x3e,
  0x8e, 0x71, 0x7a, 0x3e, 0xd4, 0xfa, 0x63, 0xbe, 0x2a, 0xb1, 0x35, 0x3d,
  0x2c, 0x8b, 0x28, 0xbd, 0xea, 0xfa, 0x08, 0xbd, 0x78, 0x80, 0xb8, 0xbc,
  0xa0, 0xe4, 0xba, 0x3c, 0x72, 0x25, 0xa2, 0xbd, 0x31, 0x80, 0x2a, 0xbe,
  0xe8, 0xed, 0xb5, 0x3e, 0x2c, 0x0c, 0x09, 0xbf, 0x41, 0x46, 0xc2, 0x3d,
  0x96, 0x5f, 0x88, 0x3d, 0xcb, 0xaa, 0xdc, 0xbd, 0x49, 0x3d, 0x81, 0x3e,
  0xba, 0x31, 0xad, 0x3e, 0x54, 0x51, 0x07, 0x3e, 0x26, 0xee, 0x54, 0xbf,
  0x08, 0x60, 0x8c, 0x3c, 0xbf, 0x84, 0x99, 0xbd, 0x14, 0x06, 0x8b, 0xbd,
  0x6c, 0xfd, 0x37, 0x3c, 0xa7, 0x5a, 0xab, 0xbb, 0xa6, 0x2c, 0xe0, 0xbd,
  0xc4, 0xb0, 0xad, 0xbd, 0x61, 0x93, 0xeb, 0x3d, 0x3d, 0xfe, 0xc4, 0xbe,
  0xdd, 0xd7, 0x2f, 0xbd, 0xfc, 0xe8, 0xbd, 0xbd, 0x19, 0x83, 0x27, 0x3d,
  0x17, 0x64, 0xb9, 0x3d, 0x82, 0xad, 0x1e, 0x3e, 0x4d, 0x0a, 0x70, 0xbd,
  0xc2, 0xeb, 0x0e, 0xbf, 0x74, 0x8b, 0x8e, 0xbd, 0xe9, 0xa5, 0x7a, 0xbe,
  0x02, 0xb4, 0x10, 0xbe, 0x6d, 0xf6, 0xd7, 0x3e, 0x28, 0x18, 0x21, 0xbd,
  0x33, 0x87, 0x93, 0xbe, 0xc1, 0x64, 0xd2, 0xbd, 0xdc, 0xcc, 0xef, 0x3c,
  0x77, 0x04, 0x56, 0xbc, 0xfe, 0xf4, 0xfb, 0x3d, 0x96, 0xd8, 0x04, 0xbd,
  0x8b, 0xfe, 0xce, 0xbe, 0xde, 0x49, 0xee, 0xbd, 0xe3, 0x9a, 0xc7, 0x3e,
  0x96, 0x75, 0x82, 0x3e, 0x08, 0xe8, 0x50, 0x3e, 0xb7, 0xf4, 0x02, 0xbe,
  0xf7, 0xc4, 0x25, 0x3e, 0xe9, 0x43, 0x75, 0x3d, 0x4e, 0x89, 0xdf, 0xbe,
  0x44, 0xb9, 0xf0, 0xbd, 0xd5, 0xe2, 0x8e, 0x3e, 0x46, 0x74, 0x99, 0x3e,
  0x18, 0x11, 0x75, 0x3e, 0x86, 0x9c, 0x19, 0xbe, 0xc1, 0x06, 0x24, 0xbf,
  0x68, 0x5a, 0xee, 0x3d, 0xe7, 0x5f, 0x43, 0x3c, 0xbd, 0x4a, 0x8a, 0x3e,
  0xc8, 0xdb, 0xd4, 0x3c, 0x4c, 0x96, 0x56, 0xbe, 0x05, 0xa9, 0x43, 0xbe,
  0x64, 0x53, 0x30, 0xbc, 0x96, 0xb1, 0x80, 0xbe, 0x9b, 0xea, 0x28, 0xbd,
  0x64, 0x49, 0x2a, 0xbe, 0x58, 0x1a, 0x29, 0xbe, 0x66, 0x8d, 0xaf, 0xbd,
  0xeb, 0x3a, 0x74, 0xbd, 0xd2, 0x18, 0x87, 0xbe, 0xe1, 0x7e, 0x08, 0xbe,
  0x08, 0x20, 0x9f, 0xbe, 0x57, 0x36, 0x52, 0xbd, 0x02, 0x16, 0x7e, 0xbe,
  0x6e, 0x3e, 0xb0, 0x3d, 0xa4, 0x82, 0xea, 0xbd, 0x2e, 0x1f, 0x8b, 0xbe,
  0x13, 0x95, 0x9d, 0xbe, 0x1f, 0xf4, 0xe9, 0xbd, 0x05, 0x1d, 0x93, 0xbe,
  0xf6, 0x02, 0x93, 0xbd, 0x8b, 0x6c, 0x4f, 0x3c, 0x46, 0x48, 0xfc, 0xbd,
  0x5b, 0x17, 0xba, 0x3d, 0x52, 0xea, 0xc8, 0x3c, 0xb6, 0x11, 0x36, 0xbe,
  0x7a, 0x62, 0xc1, 0xbe, 0xc2, 0x62, 0x6f, 0xbb, 0x13, 0x23, 0x51, 0x3d,
  0x40, 0xa0, 0x62, 0xbe, 0xcf, 0xd5, 0xa0, 0xbd, 0x63, 0xe2, 0xb5, 0x3d,
  0xe2, 0x05, 0x15, 0xbe, 0xd9, 0xda, 0x3b, 0xbf, 0x58, 0xda, 0x46, 0xbd,
  0x97, 0xb3, 0xca, 0xbe, 0x02, 0x49, 0x9d, 0xbe, 0xea, 0x6b, 0x0f, 0xbd,
  0x12, 0xc6, 0x1d, 0xbe, 0x85, 0x2e, 0xd7, 0x3d, 0xce, 0x5b, 0x93, 0xbd,
  0x41, 0x3b, 0x70, 0xbc, 0x4b, 0x22, 0x97, 0x3e, 0x76, 0xb5, 0xa6, 0xbe,
  0x78, 0x80, 0xce, 0xbe, 0x3c, 0xa6, 0x50, 0xbd, 0xe4, 0x2b, 0x66, 0xbd,
  0xc9, 0x3e, 0x81, 0xbd, 0x08, 0x72, 0x0a, 0xbe, 0x8b, 0x94, 0xce, 0x3d,
  0x0a, 0xc3, 0x8a, 0xbd, 0x76, 0x87, 0x81, 0x3e, 0x26, 0xb8, 0x77, 0xbe,
  0x7f, 0x94, 0x5a, 0xbd, 0xcd, 0x32, 0x0a, 0xbe, 0x4b, 0xfb, 0xf8, 0x3c,
  0x77, 0x1c, 0x85, 0x3e, 0x7e, 0xfe, 0x14, 0xbb, 0x39, 0xab, 0xfe, 0xbc,
  0xaf, 0x82, 0xce, 0x3d, 0xb4, 0x6e, 0x80, 0xbe, 0x5f, 0x08, 0x56, 0x3e,
  0xb1, 0x40, 0x11, 0x3d, 0xa3, 0x58, 0x4a, 0xbe, 0x4b, 0x85, 0x33, 0xbb,
  0xd3, 0xc0, 0x33, 0x3d, 0xdc, 0x0f, 0xce, 0xbc, 0x8b, 0x27, 0x74, 0x3e,
  0xa1, 0x76, 0x68, 0xbe, 0xb0, 0xc0, 0x91, 0xbd, 0xf8, 0x4c, 0x95, 0xbd,
  0x99, 0xee, 0x1c, 0xbc, 0xd4, 0xf1, 0x43, 0x3e, 0x8a, 0xca, 0x85, 0xbe,
  0xea, 0x68, 0x70, 0x3d, 0xc2, 0x0b, 0xaa, 0xbe, 0x0b, 0xff, 0x17, 0xbe,
  0x08, 0x6b, 0xb7, 0x3d, 0xb0, 0x98, 0x35, 0x3e, 0xe4, 0x67, 0x92, 0xbd,
  0x4f, 0x8c, 0x75, 0x3b, 0x7c, 0xad, 0x58, 0x3d, 0xc8, 0x5d, 0xf9, 0x3d,
  0x18, 0xf0, 0x49, 0x3e, 0x29, 0xd1, 0xa4, 0xbc, 0xe0, 0x2e, 0xd8, 0xbc,
  0xd1, 0xff, 0x19, 0x3d, 0xa5, 0xe5, 0x59, 0xbe, 0x9f, 0xde, 0xcc, 0xbd,
  0xc0, 0x24, 0xbb, 0x3e, 0x05, 0x10, 0x3e, 0xbe, 0xcb, 0xad, 0x83, 0xbe,
  0x0c, 0xdb, 0x1a, 0x3d, 0xc9, 0xb8, 0x18, 0x3e, 0x9b, 0x44, 0x23, 0x3e,
  0x80, 0xff, 0x5c, 0xbd, 0x77, 0xdc, 0x81, 0xbe, 0xbd, 0x72, 0x30, 0x3c,
  0x38, 0x1a, 0x49, 0xbe, 0xc9, 0x86, 0xf9, 0x3b, 0xf5, 0xbb, 0xa4, 0xbd,
  0xf2, 0xfe, 0xbf, 0x3e, 0x2c, 0x72, 0x5e, 0xbd, 0x78, 0x4a, 0x5b, 0x3e,
  0x91, 0x63, 0x03, 0x3e, 0xaa, 0x08, 0x47, 0xbe, 0x55, 0x60, 0x21, 0x3c,
  0xdc, 0xf3, 0x3c, 0xbe, 0x79, 0x46, 0x77, 0xbe, 0xf5, 0xb8, 0x4e, 0xbe,
  0xda, 0xb5, 0x8d, 0x3e, 0xa8, 0x5b, 0xcd, 0x3e, 0x9a, 0x1d, 0x21, 0x3e,
  0xbc, 0xaf, 0x47, 0xbd, 0xb2, 0x0e, 0xfc, 0xbd, 0x23, 0xa1, 0xac, 0x3b,
  0xa9, 0x04, 0x16, 0xbe, 0xa4, 0xff, 0x19, 0x3e, 0x4f, 0xc3, 0xbd, 0xbd,
  0x4e, 0x14, 0x3b, 0x3e, 0xb9, 0x6a, 0x5d, 0x3e, 0x5f, 0x99, 0x36, 0xbd,
  0x16, 0x90, 0x9b, 0xbd, 0x2d, 0xd9, 0xf8, 0xbd, 0x8e, 0x30, 0x96, 0xbe,
  0x2c, 0xb1, 0x47, 0xbd, 0x93, 0xfc, 0xa1, 0x3e, 0x41, 0xdd, 0x5b, 0x3e,
  0x1b, 0xc0, 0xfb, 0x3d, 0x8c, 0x24, 0x03, 0x3c, 0xa4, 0xff, 0x09, 0xbe,
  0x5c, 0x22, 0x5f, 0xbd, 0x0b, 0xa8, 0xff, 0x3c, 0x4c, 0x33, 0x2c, 0x3e,
  0x55, 0xc9, 0xbd, 0xbd, 0x1d, 0x6b, 0xee, 0x3c, 0xe3, 0x5f, 0x13, 0xbd,
  0x67, 0xa9, 0x9a, 0xbd, 0x17, 0xf3, 0x35, 0xbe, 0x90, 0xfb, 0x12, 0xbd,
  0x3d, 0x35, 0xb5, 0xbd, 0xf2, 0x57, 0x05, 0xbc, 0x3d, 0xc4, 0xd5, 0x3e,
  0x01, 0xcb, 0x6a, 0x3e, 0x44, 0xac, 0xc5, 0x3d, 0xac, 0xb4, 0xde, 0xbc,
  0x50, 0xd5, 0xbb, 0x3d, 0xba, 0x59, 0x84, 0xbb, 0x80, 0x70, 0xea, 0x3c,
  0xbb, 0x48, 0x3c, 0x3e, 0x7f, 0x7f, 0x6d, 0xbe, 0xd7, 0xfa, 0x66, 0x3e,
  0x2c, 0xa3, 0x84, 0x3e, 0x02, 0x80, 0xcb, 0xbd, 0x97, 0xab, 0xc2, 0xbd,
  0x83, 0x36, 0x9c, 0xbb, 0xdf, 0x20, 0x1a, 0x3e, 0x07, 0x3b, 0x3d, 0xbd,
  0x22, 0x9c, 0x12, 0x3d, 0x36, 0xc9, 0xe0, 0x3e, 0x86, 0x88, 0x27, 0x3e,
  0x84, 0x8d, 0xc0, 0x3c, 0xe1, 0xf8, 0x87, 0x3d, 0x95, 0x54, 0x4f, 0x3e,
  0x0f, 0xa5, 0xbe, 0xbd, 0x93, 0xb0, 0xec, 0x3d, 0x3c, 0x5e, 0x79, 0xbe,
  0x07, 0x1e, 0x49, 0x3d, 0xff, 0x15, 0xbd, 0x3d, 0xf1, 0x60, 0xe0, 0xbb,
  0x66, 0xc4, 0x3d, 0xbe, 0xa9, 0xff, 0x66, 0x3c, 0xa5, 0xe1, 0x16, 0x3d,
  0x53, 0x20, 0x92, 0xbd, 0x65, 0xf0, 0x25, 0x3e, 0xc3, 0xdb, 0xc6, 0x3d,
  0xbd, 0x19, 0xa6, 0x3c, 0xd7, 0x83, 0x1f, 0xbd, 0x1c, 0xc3, 0x1d, 0x3e,
  0xd4, 0x02, 0x7e, 0x3d, 0x30, 0x88, 0xa9, 0xbd, 0xf2, 0x21, 0x06, 0x3e,
  0x44, 0xfd, 0xa4, 0xbd, 0xd4, 0x3e, 0x4a, 0x3d, 0x91, 0x84, 0x05, 0xbd,
  0x35, 0x2b, 0x80, 0x3d, 0x4f, 0x6c, 0x24, 0xbd, 0x16, 0x47, 0xad, 0xbd,
  0xea, 0x41, 0x50, 0xbd, 0xbf, 0x0c, 0x24, 0xbe, 0x69, 0x42, 0xfa, 0x3d,
  0xe8, 0xd4, 0x95, 0x3e, 0x8e, 0x89, 0x39, 0xbe, 0x5f, 0xc6, 0x22, 0xbc,
  0xf1, 0x17, 0x89, 0x3c, 0xa3, 0x4f, 0xc6, 0xbc, 0xd3, 0x7f, 0x8b, 0xbb,
  0x3b, 0xcc, 0x88, 0xbc, 0x32, 0xff, 0xcb, 0xbd, 0xef, 0x5f, 0xba, 0x3d,
  0xa0, 0xa9, 0x08, 0x3d, 0xf3, 0x8c, 0x19, 0x3e, 0x36, 0x87, 0x4e, 0xbe,
  0xf5, 0x79, 0x83, 0xbd, 0x45, 0x91, 0x94, 0xbe, 0xc1, 0x77, 0xf6, 0xbd,
  0xb2, 0xdd, 0x21, 0x3e, 0x03, 0x1a, 0x6e, 0x3d, 0xbf, 0xe1, 0x4a, 0xbe,
  0x92, 0x3d, 0xb5, 0xbc, 0x02, 0xdd, 0x7b, 0xbd, 0x44, 0x42, 0xb7, 0xbe,
  0xcc, 0xf4, 0xb0, 0xbe, 0xf5, 0x46, 0x2d, 0x3e, 0xcb, 0x65, 0xc9, 0x3c,
  0x28, 0x0a, 0x30, 0xbe, 0xf1, 0x2e, 0x77, 0xbe, 0x9d, 0xed, 0x5e, 0xbe,
  0x5e, 0x41, 0x99, 0xbe, 0xe1, 0x24, 0x3a, 0xbe, 0x3b, 0x18, 0x9c, 0xbe,
  0x5c, 0x68, 0xb0, 0x3d, 0x72, 0x46, 0x1e, 0xbe, 0xde, 0x80, 0xae, 0x3e,
  0x16, 0x98, 0xae, 0x3d, 0xb7, 0xb4, 0x69, 0xbc, 0xab, 0x24, 0xab, 0x3d,
  0x6e, 0xf4, 0xda, 0xbd, 0xd7, 0xcd, 0x03, 0xbf, 0x8f, 0xfc, 0xb5, 0x3e,
  0xa2, 0x70, 0x02, 0x3e, 0x9e, 0xac, 0xf2, 0x3d, 0xc8, 0x4a, 0x16, 0xbe,
  0x5e, 0xd1, 0xb4, 0x3e, 0x35, 0x34, 0x7a, 0xbe, 0xad, 0x74, 0x12, 0x3e,
  0x12, 0x51, 0x9b, 0xbe, 0x28, 0x65, 0x1f, 0x3e, 0x2b, 0xc2, 0x25, 0xbe,
  0x78, 0x8f, 0xce, 0x3e, 0x7c, 0x3c, 0x0a, 0x3e, 0xbd, 0xda, 0xe8, 0xbd,
  0xd2, 0x0f, 0xad, 0x3c, 0x3e, 0xaf, 0xe8, 0x3e, 0x2a, 0x54, 0xa3, 0xbe,
  0xc4, 0xea, 0xa4, 0x3e, 0x38, 0x62, 0x95, 0x3d, 0x43, 0x1e, 0x06, 0x3e,
  0x43, 0x3d, 0x31, 0x3e, 0x52, 0xe2, 0x08, 0x3e, 0x4a, 0x9f, 0xc7, 0xbc,
  0x0b, 0x8d, 0xb8, 0xbd, 0xdf, 0x85, 0xa3, 0xbe, 0x5f, 0xc9, 0x92, 0xbd,
  0x6e, 0xc9, 0xd3, 0x3c, 0xea, 0xaf, 0x69, 0x3e, 0x2d, 0x92, 0xad, 0x3e,
  0xb3, 0xdc, 0xd7, 0xbc, 0x13, 0xf1, 0xae, 0x3d, 0x83, 0x64, 0x5a, 0x3e,
  0x28, 0x17, 0x92, 0xbe, 0x34, 0x95, 0xbd, 0x3e, 0x1f, 0xe0, 0xcb, 0x3d,
  0x1e, 0x0c, 0x69, 0x3d, 0x00, 0x96, 0xcb, 0xbc, 0x5d, 0x0f, 0x2a, 0x3e,
  0x48, 0xd8, 0xad, 0xbe, 0x5b, 0x5b, 0x9a, 0xbe, 0xb0, 0xe4, 0x7a, 0xbe,
  0xcb, 0x8f, 0xc4, 0x3d, 0x7d, 0x90, 0x29, 0xbe, 0x5c, 0x7b, 0x1e, 0x3e,
  0xa3, 0x54, 0x8e, 0x3d, 0x6c, 0x52, 0x45, 0xbe, 0x8b, 0x06, 0x0b, 0x3d,
  0xa4, 0xb5, 0x33, 0x3d, 0x60, 0x42, 0xed, 0xbd, 0xaa, 0x66, 0xc7, 0x3b,
  0xc7, 0x6a, 0x6b, 0x3d, 0x4a, 0xa9, 0xbe, 0x3d, 0xc1, 0x71, 0x36, 0xbc,
  0xef, 0xc3, 0x81, 0x3d, 0x96, 0xe6, 0x80, 0xbe, 0x03, 0x4b, 0x63, 0xbd,
  0x69, 0x04, 0x4e, 0x3a, 0xa0, 0x89, 0x05, 0xbe, 0x23, 0x47, 0x86, 0x3b,
  0xc4, 0x3c, 0x1e, 0x3e, 0x8b, 0xd7, 0xc2, 0x3d, 0x84, 0xbc, 0x9e, 0xbe,
  0xd8, 0x99, 0x55, 0x3d, 0xd2, 0x61, 0x1e, 0xbd, 0xf5, 0x47, 0xfe, 0x3c,
  0x6c, 0xf9, 0x14, 0x3d, 0xfb, 0xd9, 0x1c, 0x3d, 0xe0, 0xe5, 0x25, 0x3e,
  0x48, 0x8e, 0xc9, 0x3d, 0xf1, 0xb6, 0x90, 0x3e, 0x02, 0x4c, 0x49, 0xbe,
  0xa0, 0x6a, 0x01, 0xbd, 0xcf, 0xf6, 0x42, 0xbe, 0xac, 0x49, 0x2e, 0xbe,
  0x28, 0x41, 0xf9, 0xbd, 0xea, 0x3e, 0x55, 0x3e, 0xc0, 0xd2, 0x9c, 0xbd,
  0x63, 0xa8, 0x23, 0xbe, 0x58, 0xa2, 0xa4, 0x3c, 0x79, 0x30, 0x0e, 0xbe,
  0x66, 0x5b, 0x33, 0xbe, 0x7c, 0xf1, 0xb9, 0x3d, 0x88, 0x71, 0x6b, 0xbd,
  0x67, 0x00, 0x01, 0x3a, 0x4e, 0x15, 0x61, 0x3d, 0x7d, 0x00, 0x0b, 0xbe,
  0x54, 0x1a, 0xea, 0xbd, 0xc4, 0x0f, 0xaa, 0x3d, 0x4f, 0xd8, 0xa6, 0xbd,
  0x8e, 0xb5, 0xbc, 0xbe, 0xae, 0x9c, 0x9c, 0xbd, 0xc6, 0xcf, 0x1b, 0x3e,
  0x66, 0xfd, 0xff, 0xff, 0x10, 0x00, 0x00, 0x00, 0x07, 0x00, 0x00, 0x00,
  0x14, 0x00, 0x00, 0x00, 0x2c, 0x00, 0x00, 0x00, 0x02, 0x00, 0x00, 0x00,
  0x10, 0x00, 0x00, 0x00, 0x70, 0x00, 0x00, 0x00, 0x17, 0x00, 0x00, 0x00,
  0x73, 0x65, 0x71, 0x75, 0x65, 0x6e, 0x74, 0x69, 0x61, 0x6c, 0x2f, 0x64,
  0x65, 0x6e, 0x73, 0x65, 0x2f, 0x4d, 0x61, 0x74, 0x4d, 0x75, 0x6c, 0x00,
  0xd0, 0xfc, 0xff, 0xff, 0xda, 0xfd, 0xff, 0xff, 0x04, 0x00, 0x00, 0x00,
  0x08, 0x00, 0x00, 0x00, 0xff, 0xff, 0xff, 0xff, 0x70, 0x00, 0x00, 0x00,
  0x00, 0x00, 0x0e, 0x00, 0x18, 0x00, 0x08, 0x00, 0x07, 0x00, 0x0c, 0x00,
  0x10, 0x00, 0x14, 0x00, 0x0e, 0x00, 0x00, 0x00, 0x00, 0x00, 0x00, 0x02,
  0x10, 0x00, 0x00, 0x00, 0x06, 0x00, 0x00, 0x00, 0x10, 0x00, 0x00, 0x00,
  0x2c, 0x00, 0x00, 0x00, 0x01, 0x00, 0x00, 0x00, 0x02, 0x00, 0x00, 0x00,
  0x18, 0x00, 0x00, 0x00, 0x73, 0x65, 0x71, 0x75, 0x65, 0x6e, 0x74, 0x69,
  0x61, 0x6c, 0x2f, 0x66, 0x6c, 0x61, 0x74, 0x74, 0x65, 0x6e, 0x2f, 0x43,
  0x6f, 0x6e, 0x73, 0x74, 0x00, 0x00, 0x00, 0x00, 0x38, 0xfd, 0xff, 0xff,
  0x42, 0xfe, 0xff, 0xff, 0x04, 0x00, 0x00, 0x00, 0x0c, 0x00, 0x00, 0x00,
  0xe8, 0x8a, 0xdb, 0xbf, 0x13, 0x3d, 0x32, 0xc0, 0x94, 0xbc, 0x55, 0x40,
  0x26, 0xfe, 0xff, 0xff, 0x10, 0x00, 0x00, 0x00, 0x05, 0x00, 0x00, 0x00,
  0x10, 0x00, 0x00, 0x00, 0x44, 0x00, 0x00, 0x00, 0x01, 0x00, 0x00, 0x00,
  0x03, 0x00, 0x00, 0x00, 0x32, 0x00, 0x00, 0x00, 0x73, 0x65, 0x71, 0x75,
  0x65, 0x6e, 0x74, 0x69, 0x61, 0x6c, 0x2f, 0x64, 0x65, 0x6e, 0x73, 0x65,
  0x5f, 0x31, 0x2f, 0x42, 0x69, 0x61, 0x73, 0x41, 0x64, 0x64, 0x2f, 0x52,
  0x65, 0x61, 0x64, 0x56, 0x61, 0x72, 0x69, 0x61, 0x62, 0x6c, 0x65, 0x4f,
  0x70, 0x2f, 0x72, 0x65, 0x73, 0x6f, 0x75, 0x72, 0x63, 0x65, 0x00, 0x00,
  0xa8, 0xfd, 0xff, 0xff, 0xb2, 0xfe, 0xff, 0xff, 0x04, 0x00, 0x00, 0x00,
  0x40, 0x00, 0x00, 0x00, 0x06, 0x2d, 0x84, 0xbf, 0x6f, 0x6f, 0xb8, 0xbf,
  0x1b, 0x1c, 0x59, 0xbe, 0x53, 0xf7, 0xa5, 0xbe, 0x14, 0xba, 0xdf, 0xbe,
  0x16, 0x90, 0x85, 0xbf, 0x46, 0x1d, 0x9a, 0xbf, 0x04, 0xc4, 0x78, 0x3f,
  0xf6, 0xb3, 0x53, 0x3f, 0xd7, 0xb0, 0x86, 0xbe, 0xb1, 0x02, 0x87, 0xbf,
  0x78, 0xa5, 0x59, 0x3f, 0x6d, 0x13, 0x70, 0x40, 0x74, 0x62, 0x05, 0xbf,
  0xae, 0xe5, 0xf5, 0xbd, 0xf5, 0x63, 0x0b, 0x40, 0xca, 0xfe, 0xff, 0xff,
  0x10, 0x00, 0x00, 0x00, 0x04, 0x00, 0x00, 0x00, 0x10, 0x00, 0x00, 0x00,
  0x44, 0x00, 0x00, 0x00, 0x01, 0x00, 0x00, 0x00, 0x10, 0x00, 0x00, 0x00,
  0x30, 0x00, 0x00, 0x00, 0x73, 0x65, 0x71, 0x75, 0x65, 0x6e, 0x74, 0x69,
  0x61, 0x6c, 0x2f, 0x64, 0x65, 0x6e, 0x73, 0x65, 0x2f, 0x42, 0x69, 0x61,
  0x73, 0x41, 0x64, 0x64, 0x2f, 0x52, 0x65, 0x61, 0x64, 0x56, 0x61, 0x72,
  0x69, 0x61, 0x62, 0x6c, 0x65, 0x4f, 0x70, 0x2f, 0x72, 0x65, 0x73, 0x6f,
  0x75, 0x72, 0x63, 0x65, 0x00, 0x00, 0x00, 0x00, 0x4c, 0xfe, 0xff, 0xff,
  0x56, 0xff, 0xff, 0xff, 0x04, 0x00, 0x00, 0x00, 0x40, 0x00, 0x00, 0x00,
  0x1c, 0x38, 0xa8, 0xbe, 0x9f, 0x06, 0xda, 0xbf, 0x80, 0x52, 0x99, 0xbf,
  0x24, 0x79, 0xa3, 0xbf, 0x57, 0x51, 0xc5, 0xbf, 0xb2, 0x48, 0x52, 0x3f,
  0x7d, 0xea, 0x01, 0x3d, 0x3e, 0x88, 0xe0, 0xbd, 0x5d, 0xc0, 0x1e, 0xc0,
  0x66, 0x84, 0x07, 0xbf, 0xda, 0xac, 0x35, 0x40, 0xa3, 0x4c, 0x70, 0x3b,
  0xea, 0x23, 0xb1, 0xbf, 0x13, 0xcc, 0xa7, 0xbf, 0x5c, 0x56, 0x4e, 0xbf,
  0x06, 0x20, 0x81, 0xbd, 0x6e, 0xff, 0xff, 0xff, 0x10, 0x00, 0x00, 0x00,
  0x03, 0x00, 0x00, 0x00, 0x10, 0x00, 0x00, 0x00, 0x48, 0x00, 0x00, 0x00,
  0x01, 0x00, 0x00, 0x00, 0x10, 0x00, 0x00, 0x00, 0x33, 0x00, 0x00, 0x00,
  0x73, 0x65, 0x71, 0x75, 0x65, 0x6e, 0x74, 0x69, 0x61, 0x6c, 0x2f, 0x63,
  0x6f, 0x6e, 0x76, 0x32, 0x64, 0x5f, 0x31, 0x2f, 0x42, 0x69, 0x61, 0x73,
  0x41, 0x64, 0x64, 0x2f, 0x52, 0x65, 0x61, 0x64, 0x56, 0x61, 0x72, 0x69,
  0x61, 0x62, 0x6c, 0x65, 0x4f, 0x70, 0x2f, 0x72, 0x65, 0x73, 0x6f, 0x75,
  0x72, 0x63, 0x65, 0x00, 0x04, 0x00, 0x06, 0x00, 0x04, 0x00, 0x00, 0x00,
  0x00, 0x00, 0x06, 0x00, 0x08, 0x00, 0x04, 0x00, 0x06, 0x00, 0x00, 0x00,
  0x04, 0x00, 0x00, 0x00, 0x20, 0x00, 0x00, 0x00, 0xd3, 0x4b, 0x0e, 0xc0,
  0x95, 0xca, 0x26, 0xc0, 0xfd, 0xa6, 0x00, 0xbf, 0x46, 0x36, 0x5d, 0xbf,
  0x66, 0x77, 0x44, 0xbf, 0xec, 0x54, 0x15, 0xbf, 0xde, 0x9e, 0xaf, 0xbf,
  0xa8, 0x15, 0xef, 0xbf, 0x00, 0x00, 0x0e, 0x00, 0x14, 0x00, 0x04, 0x00,
  0x00, 0x00, 0x08, 0x00, 0x0c, 0x00, 0x10, 0x00, 0x0e, 0x00, 0x00, 0x00,
  0x10, 0x00, 0x00, 0x00, 0x02, 0x00, 0x00, 0x00, 0x10, 0x00, 0x00, 0x00,
  0x44, 0x00, 0x00, 0x00, 0x01, 0x00, 0x00, 0x00, 0x08, 0x00, 0x00, 0x00,
  0x31, 0x00, 0x00, 0x00, 0x73, 0x65, 0x71, 0x75, 0x65, 0x6e, 0x74, 0x69,
  0x61, 0x6c, 0x2f, 0x63, 0x6f, 0x6e, 0x76, 0x32, 0x64, 0x2f, 0x42, 0x69,
  0x61, 0x73, 0x41, 0x64, 0x64, 0x2f, 0x52, 0x65, 0x61, 0x64, 0x56, 0x61,
  0x72, 0x69, 0x61, 0x62, 0x6c, 0x65, 0x4f, 0x70, 0x2f, 0x72, 0x65, 0x73,
  0x6f, 0x75, 0x72, 0x63, 0x65, 0x00, 0x00, 0x00, 0x90, 0xff, 0xff, 0xff,
  0x14, 0x00, 0x18, 0x00, 0x04, 0x00, 0x00, 0x00, 0x08, 0x00, 0x0c, 0x00,
  0x10, 0x00, 0x00, 0x00, 0x00, 0x00, 0x14, 0x00, 0x14, 0x00, 0x00, 0x00,
  0x14, 0x00, 0x00, 0x00, 0x01, 0x00, 0x00, 0x00, 0x20, 0x00, 0x00, 0x00,
  0x44, 0x00, 0x00, 0x00, 0x2c, 0x00, 0x00, 0x00, 0x04, 0x00, 0x00, 0x00,
  0x01, 0x00, 0x00, 0x00, 0x40, 0x00, 0x00, 0x00, 0x03, 0x00, 0x00, 0x00,
  0x01, 0x00, 0x00, 0x00, 0x0c, 0x00, 0x00, 0x00, 0x63, 0x6f, 0x6e, 0x76,
  0x32, 0x64, 0x5f, 0x69, 0x6e, 0x70, 0x75, 0x74, 0x00, 0x00, 0x00, 0x00,
  0x04, 0x00, 0x00, 0x00, 0xff, 0xff, 0xff, 0xff, 0x40, 0x00, 0x00, 0x00,
  0x03, 0x00, 0x00, 0x00, 0x01, 0x00, 0x00, 0x00, 0xfc, 0xff, 0xff, 0xff,
  0x04, 0x00, 0x04, 0x00, 0x04, 0x00, 0x00, 0x00
};
unsigned int _content_mbed08_model_model_tflite_len = 13052;
